{
  "version": "1.0",
  "truncation": null,
  "padding": null,
  "added_tokens": [
    {
      "id": 0,
      "content": "<s>",
      "single_word": false,
      "lstrip": false,
      "rstrip": false,
      "normalized": true,
      "special": true
    },
    {
      "id": 1,
      "content": "<pad>",
      "single_word": false,
      "lstrip": false,
      "rstrip": false,
      "normalized": true,
      "special": true
    },
    {
      "id": 2,
      "content": "</s>",
      "single_word": false,
      "lstrip": false,
      "rstrip": false,
      "normalized": true,
      "special": true
    },
    {
      "id": 3,
      "content": "<unk>",
      "single_word": false,
      "lstrip": false,
      "rstrip": false,
      "normalized": true,
      "special": true
    },
    {
      "id": 4,
      "content": "<mask>",
      "single_word": false,
      "lstrip": true,
      "rstrip": false,
      "normalized": true,
      "special": true
    }
  ],
  "normalizer": null,
  "pre_tokenizer": {
    "type": "ByteLevel",
    "add_prefix_space": false,
    "trim_offsets": true,
    "use_regex": true
  },
  "post_processor": {
    "type": "RobertaProcessing",
    "sep": [
      "</s>",
      2
    ],
    "cls": [
      "<s>",
      0
    ],
    "trim_offsets": true,
    "add_prefix_space": false
  },
  "decoder": {
    "type": "ByteLevel",
    "add_prefix_space": true,
    "trim_offsets": true,
    "use_regex": true
  },
  "model": {
    "type": "BPE",
    "dropout": null,
    "unk_token": null,
    "continuing_subword_prefix": "",
    "end_of_word_suffix": "",
    "fuse_unk": false,
    "vocab": {
      "<s>": 0,
      "<pad>": 1,
      "</s>": 2,
      "<unk>": 3,
      "<mask>": 4,
      "!": 5,
      "\"": 6,
      "#": 7,
      "$": 8,
      "%": 9,
      "&": 10,
      "'": 11,
      "(": 12,
      ")": 13,
      "*": 14,
      "+": 15,
      ",": 16,
      "-": 17,
      ".": 18,
      "/": 19,
      "0": 20,
      "1": 21,
      "2": 22,
      "3": 23,
      "4": 24,
      "5": 25,
      "6": 26,
      "7": 27,
      "8": 28,
      "9": 29,
      ":": 30,
      ";": 31,
      "<": 32,
      "=": 33,
      ">": 34,
      "?": 35,
      "@": 36,
      "A": 37,
      "B": 38,
      "C": 39,
      "D": 40,
      "E": 41,
      "F": 42,
      "G": 43,
      "H": 44,
      "I": 45,
      "J": 46,
      "K": 47,
      "L": 48,
      "M": 49,
      "N": 50,
      "O": 51,
      "P": 52,
      "Q": 53,
      "R": 54,
      "S": 55,
      "T": 56,
      "U": 57,
      "V": 58,
      "W": 59,
      "X": 60,
      "Y": 61,
      "Z": 62,
      "[": 63,
      "\\": 64,
      "]": 65,
      "^": 66,
      "_": 67,
      "`": 68,
      "a": 69,
      "b": 70,
      "c": 71,
      "d": 72,
      "e": 73,
      "f": 74,
      "g": 75,
      "h": 76,
      "i": 77,
      "j": 78,
      "k": 79,
      "l": 80,
      "m": 81,
      "n": 82,
      "o": 83,
      "p": 84,
      "q": 85,
      "r": 86,
      "s": 87,
      "t": 88,
      "u": 89,
      "v": 90,
      "w": 91,
      "x": 92,
      "y": 93,
      "z": 94,
      "{": 95,
      "|": 96,
      "}": 97,
      "~": 98,
      "¡": 99,
      "¢": 100,
      "£": 101,
      "¤": 102,
      "¥": 103,
      "¦": 104,
      "§": 105,
      "¨": 106,
      "©": 107,
      "ª": 108,
      "«": 109,
      "¬": 110,
      "®": 111,
      "¯": 112,
      "°": 113,
      "±": 114,
      "²": 115,
      "³": 116,
      "´": 117,
      "µ": 118,
      "¶": 119,
      "·": 120,
      "¸": 121,
      "¹": 122,
      "º": 123,
      "»": 124,
      "¼": 125,
      "½": 126,
      "¾": 127,
      "¿": 128,
      "À": 129,
      "Á": 130,
      "Â": 131,
      "Ã": 132,
      "Ä": 133,
      "Å": 134,
      "Æ": 135,
      "Ç": 136,
      "È": 137,
      "É": 138,
      "Ê": 139,
      "Ë": 140,
      "Ì": 141,
      "Í": 142,
      "Î": 143,
      "Ï": 144,
      "Ð": 145,
      "Ñ": 146,
      "Ò": 147,
      "Ó": 148,
      "Ô": 149,
      "Õ": 150,
      "Ö": 151,
      "×": 152,
      "Ø": 153,
      "Ù": 154,
      "Ú": 155,
      "Û": 156,
      "Ü": 157,
      "Ý": 158,
      "Þ": 159,
      "ß": 160,
      "à": 161,
      "á": 162,
      "â": 163,
      "ã": 164,
      "ä": 165,
      "å": 166,
      "æ": 167,
      "ç": 168,
      "è": 169,
      "é": 170,
      "ê": 171,
      "ë": 172,
      "ì": 173,
      "í": 174,
      "î": 175,
      "ï": 176,
      "ð": 177,
      "ñ": 178,
      "ò": 179,
      "ó": 180,
      "ô": 181,
      "õ": 182,
      "ö": 183,
      "÷": 184,
      "ø": 185,
      "ù": 186,
      "ú": 187,
      "û": 188,
      "ü": 189,
      "ý": 190,
      "þ": 191,
      "ÿ": 192,
      "Ā": 193,
      "ā": 194,
      "Ă": 195,
      "ă": 196,
      "Ą": 197,
      "ą": 198,
      "Ć": 199,
      "ć": 200,
      "Ĉ": 201,
      "ĉ": 202,
      "Ċ": 203,
      "ċ": 204,
      "Č": 205,
      "č": 206,
      "Ď": 207,
      "ď": 208,
      "Đ": 209,
      "đ": 210,
      "Ē": 211,
      "ē": 212,
      "Ĕ": 213,
      "ĕ": 214,
      "Ė": 215,
      "ė": 216,
      "Ę": 217,
      "ę": 218,
      "Ě": 219,
      "ě": 220,
      "Ĝ": 221,
      "ĝ": 222,
      "Ğ": 223,
      "ğ": 224,
      "Ġ": 225,
      "ġ": 226,
      "Ģ": 227,
      "ģ": 228,
      "Ĥ": 229,
      "ĥ": 230,
      "Ħ": 231,
      "ħ": 232,
      "Ĩ": 233,
      "ĩ": 234,
      "Ī": 235,
      "ī": 236,
      "Ĭ": 237,
      "ĭ": 238,
      "Į": 239,
      "į": 240,
      "İ": 241,
      "ı": 242,
      "Ĳ": 243,
      "ĳ": 244,
      "Ĵ": 245,
      "ĵ": 246,
      "Ķ": 247,
      "ķ": 248,
      "ĸ": 249,
      "Ĺ": 250,
      "ĺ": 251,
      "Ļ": 252,
      "ļ": 253,
      "Ľ": 254,
      "ľ": 255,
      "Ŀ": 256,
      "ŀ": 257,
      "Ł": 258,
      "ł": 259,
      "Ń": 260,
      "à½": 261,
      "à¼": 262,
      "à¼ĭ": 263,
      "à¾": 264,
      "à½¦": 265,
      "à½Ĥ": 266,
      "à½²": 267,
      "à½¼": 268,
      "à½ĳ": 269,
      "à½ĸ": 270,
      "à½Ħ": 271,
      "à½¢": 272,
      "à½´": 273,
      "à½ĵ": 274,
      "à¾±": 275,
      "à½ł": 276,
      "à½²à¼ĭ": 277,
      "à½º": 278,
      "à½£": 279,
      "à½ĺ": 280,
      "à¾²": 281,
      "à½Ķ": 282,
      "à¼į": 283,
      "à½Ĥà½¦": 284,
      "à½ģ": 285,
      "à½¼à¼ĭ": 286,
      "à¾Ĵ": 287,
      "à½´à¼ĭ": 288,
      "à½¡": 289,
      "à½Ģ": 290,
      "à½ŀ": 291,
      "à½ļ": 292,
      "à½ĳà½Ħ": 293,
      "à¾±à½²à¼ĭ": 294,
      "à½ºà¼ĭ": 295,
      "à½Ĳ": 296,
      "à½Ĩ": 297,
      "à¾Ĵà¾±": 298,
      "à½ĸà½¦": 299,
      "à¾Ĳ": 300,
      "à½ħ": 301,
      "à½ı": 302,
      "à¾Ł": 303,
      "à½ķ": 304,
      "à½Ħà½¦": 305,
      "à½ĵà½¦": 306,
      "à½Ķà½ł": 307,
      "à¾±à½¼": 308,
      "à¾³": 309,
      "à¾²à½´": 310,
      "à¾±à½º": 311,
      "à½ī": 312,
      "à¾²à½²": 313,
      "à½¤": 314,
      "à½ĸà½¢": 315,
      "à½Ł": 316,
      "à¾²à½¼": 317,
      "à½łà½Ĥ": 318,
      "à¾±à½²": 319,
      "à¼ĭà¼į": 320,
      "à½łà½ĳ": 321,
      "à¾¤": 322,
      "à½£à½¦": 323,
      "à½łà½ĸ": 324,
      "à½ĳà½Ĥ": 325,
      "à¾¡": 326,
      "à½ĺà½¦": 327,
      "à½łà½": 328,
      "à¾©": 329,
      "à½ĸà½ħ": 330,
      "à½Ĥà½ŀ": 331,
      "à¾Ĵà¾±à½´": 332,
      "à¾±à½´": 333,
      "à½ĸà½ł": 334,
      "à½Ĥà½ı": 335,
      "à¾£": 336,
      "à½ĳà½ĺ": 337,
      "à½Ķà½¢": 338,
      "à¾Ķ": 339,
      "à½łà½Ľ": 340,
      "à½Ļ": 341,
      "à½ĺà½Ĳ": 342,
      "à½ĳà½ĸ": 343,
      "Ġà½¦": 344,
      "à½łà½ķ": 345,
      "à¾³à½¼": 346,
      "à¾Ĳà¾±à½¼": 347,
      "à¾Ĺ": 348,
      "à½ĸà½ŀ": 349,
      "Ġà½¢": 350,
      "à¾²à½º": 351,
      "à½ĺà½ļ": 352,
      "à½§": 353,
      "Ġà½ĳ": 354,
      "à½¨": 355,
      "à¾±à¼ĭ": 356,
      "à¾·": 357,
      "âĢ": 358,
      "à½Ĥà½ī": 359,
      "à½Ĥà½ĵà½¦": 360,
      "à¾Łà½¼": 361,
      "à½ĵà½Ħ": 362,
      "à½łà½ģ": 363,
      "Ġà½£": 364,
      "à½ĺà½Ħ": 365,
      "à½Ĥà½ħ": 366,
      "à½ĳà½Ķ": 367,
      "à½ıà½Ħ": 368,
      "ĠâĢ": 369,
      "à½ĸà½Ł": 370,
      "à¾Łà½º": 371,
      "à½¢à½Ħ": 372,
      "à½łà½ĩ": 373,
      "à¼İ": 374,
      "à¾¤à¾±à½²à¼ĭ": 375,
      "à¾¨": 376,
      "à¾Ĵà¾²à½²": 377,
      "à½ģà½Ħ": 378,
      "à½ĩ": 379,
      "à½Ĥà½¦à½¢": 380,
      "à¾²à¼ĭ": 381,
      "à¾Ļ": 382,
      "à½ĺà½ģ": 383,
      "à½ĸà½ĳ": 384,
      "à¾Ĵà¾±à½´à¼ĭ": 385,
      "à½ĸà½Ģ": 386,
      "à¾Ķà½¼": 387,
      "Ġà½Ĥ": 388,
      "à¾¦": 389,
      "à½¡à½Ħ": 390,
      "à½ļà½ĳ": 391,
      "à½ĵà½ĳ": 392,
      "à½ĳà½ĺà½Ħà½¦": 393,
      "à½ĸà½¤": 394,
      "à½ĸà½ħà½¦": 395,
      "à½Ķà½¦": 396,
      "à½£à½ĺ": 397,
      "à¾©à½¼": 398,
      "à¾Ĳà¾±à½º": 399,
      "Ġà½ĺ": 400,
      "à¾«": 401,
      "à¾Ĺà½¼": 402,
      "à½£à½Ĥ": 403,
      "à½īà½ĺ": 404,
      "à½łà½ļ": 405,
      "à½Ľ": 406,
      "à¾Łà¼ĭ": 407,
      "Ġà½ģ": 408,
      "à¾Ĵà¾±à¼ĭ": 409,
      "Ġà½ĸ": 410,
      "à¾Ń": 411,
      "à¾Ĳà½¼": 412,
      "à¾Ĳà½´": 413,
      "à½łà½Ĳ": 414,
      "à½Ĥà½Ļ": 415,
      "à½ĺà½īà½ĺ": 416,
      "à¾Ĳà¾²à½´": 417,
      "à¾¤à½º": 418,
      "à½łà½Ĥà½ĵ": 419,
      "à½ºà¼į": 420,
      "à¾²à½²à¼ĭ": 421,
      "ãĢ": 422,
      "à¾¡à½´": 423,
      "à½ĺà½Ľ": 424,
      "à½ģà½ĸ": 425,
      "Ġà½ŀ": 426,
      "Ġà½Ģ": 427,
      "ĠâĢĿ": 428,
      "à¾Ĵà½¼": 429,
      "Ġ1": 430,
      "à½ģà½Ĥ": 431,
      "ĠãĢ": 432,
      "à¾²à½¼à¼ĭ": 433,
      "ĠâĢľ": 434,
      "à½ĸà½¤à½ĳ": 435,
      "à¾Ĺà½º": 436,
      "à½ħà½ĵ": 437,
      "à½ļà½Ħ": 438,
      "Ġ2": 439,
      "à¾¡à½¼": 440,
      "à¾Ĳà¾±": 441,
      "à½ĸà½ıà½Ħ": 442,
      "à½ļà½ĵ": 443,
      "à¾«à½¼": 444,
      "à¾³à¼ĭ": 445,
      "à¾Ńà¼ĭ": 446,
      "à¾¦à¾±à½¼": 447,
      "Ġà½¡": 448,
      "à½ĳà½Ģ": 449,
      "à¾Ĵà½¼à¼ĭ": 450,
      "à¾¡à½ºà¼ĭ": 451,
      "à¾Ķà¼ĭ": 452,
      "à¾¤à¾±à½¼": 453,
      "à¾³à½²": 454,
      "à¾Ĵà¾²à½´": 455,
      "Ġà½ī": 456,
      "à½ĺà½Ĥ": 457,
      "à½±": 458,
      "à½Ĳà½Ħ": 459,
      "à¾³à½¼à¼ĭ": 460,
      "à¾©à¼ĭ": 461,
      "à½ĸà½¦à½ĺ": 462,
      "à½Ĥà½ĵà½Ħ": 463,
      "à½łà½Ĩ": 464,
      "à¼į\"": 465,
      "à½ĸà½Ļ": 466,
      "à½ĳà½ĸà½Ħ": 467,
      "à½Ĳà½ĳ": 468,
      "à½Ĥà½Ħ": 469,
      "à½ĺà½ĳ": 470,
      "à¾Ĵà¾²à½¼": 471,
      "à½Ĳà½ĸà½¦": 472,
      "à½Ĳà½Ĥ": 473,
      "à½Ĥà½Ł": 474,
      "à½Ĥà½¦à½£": 475,
      "à½ĳà½Ķà½£": 476,
      "à½ĺà½ł": 477,
      "à½ķà½ĵ": 478,
      "Ġà½ļ": 479,
      "à½Ĥà½ĵ": 480,
      "à½Ļà½ĺ": 481,
      "à½ĸà½Łà½Ħ": 482,
      "à½Ĥà½ĵà½ĳ": 483,
      "à½¢à½ĸà½¦": 484,
      "à¾·à¼ĭ": 485,
      "à½Ŀ": 486,
      "à½ĸà½ı": 487,
      "à½Łà½ĳ": 488,
      "à½ĵà½ĵ": 489,
      "à½±à¼ĭ": 490,
      "à½Ĥà½£": 491,
      "à¾£à¼ĭ": 492,
      "à½ĳà½ĺà½Ĥ": 493,
      "à¾£à½¼": 494,
      "à½ĺà½Ĩ": 495,
      "à½Ĥà½ĳ": 496,
      "Ġà½ķ": 497,
      "à½ĺà½ģà½ĵ": 498,
      "à¾Ļà½²": 499,
      "à¾³à½º": 500,
      "à¾Łà½ºà¼ĭ": 501,
      "Ġ20": 502,
      "à½ģà½ĺà½¦": 503,
      "à½ĺà½Ĳà½ł": 504,
      "à½Ĥà½ŀà½ĵ": 505,
      "à½Ĥà½ıà½ĵ": 506,
      "ĠãĢĭ": 507,
      "à½Łà½ĸ": 508,
      "Ġà½Ĩ": 509,
      "à½ĳà½¢": 510,
      "à½´à¼į": 511,
      "à½łà½Ĩà½¢": 512,
      "à½Ħà½Ħ": 513,
      "à¾¤à¾±à½²": 514,
      "Ġà½ĳà½Ħ": 515,
      "Ġà½Ĳ": 516,
      "à½ĺà½¢": 517,
      "Ġà½ĺà½ļ": 518,
      "à¾¤à¾²à½¼": 519,
      "à¾Ĳà¾±à½ºà¼ĭ": 520,
      "à½ĳà½Ĥà½ł": 521,
      "à½łà½ĩà½Ĥà½¦": 522,
      "à½Ĥà½¡": 523,
      "à½¼à¼į": 524,
      "à½łà½Ĳà½ĸ": 525,
      "Ġà½Ł": 526,
      "ĠãĢĬ": 527,
      "à¾Ĺà½ºà¼ĭ": 528,
      "ï¼": 529,
      "à½ĺà½Ľà½ĳ": 530,
      "Ġà½Ħ": 531,
      "à½²à¼į": 532,
      "à¾©à½²": 533,
      "à½łà½Ħ": 534,
      "à½ŀà½ĸà½¦": 535,
      "à½ĳà½Ģà½¢": 536,
      "à¾±à½ºà¼ĭ": 537,
      "00": 538,
      "à¾Ĳà¾±à½²": 539,
      "à¾Łà½ºà¼į": 540,
      "à½Ĥà½¤": 541,
      "à¾²à½´à¼ĭ": 542,
      "à½ĺà½ļà½ĵ": 543,
      "Ġ3": 544,
      "à½ĸà½Ĥ": 545,
      "à¾¥": 546,
      "à½Ĩà½ĳ": 547,
      "à¾ķ": 548,
      "à¾Ĵà¾²": 549,
      "Ġà½¨": 550,
      "à½Ĩà½Ĥà½¦": 551,
      "Ġà½¢à½Ħ": 552,
      "à¾¡à½¼à¼ĭ": 553,
      "Ġà½£à½¦": 554,
      "à½ĺà½ĩ": 555,
      "Ġà½łà½ĳ": 556,
      "à½Ĩà½¦": 557,
      "à¾¤à½´": 558,
      "à¾Ĳà½´à¼ĭ": 559,
      "à½Ĩà½ĸ": 560,
      "à½ħà½Ħ": 561,
      "à¾³à½´à¼ĭ": 562,
      "Ġà½ĵ": 563,
      "Ġ201": 564,
      "à¾²à¾Ńà¼ĭ": 565,
      "à¾©à½ºà¼ĭ": 566,
      "à½ĸà½ĳà½Ĥ": 567,
      "à½īà½ĺà½¦": 568,
      "à½Ĥà½Ļà½Ħ": 569,
      "à½¼à¼İ": 570,
      "à½¢à½ĸ": 571,
      "à¾¡à½º": 572,
      "à½Ĥà½ıà½ĺ": 573,
      "Ġà½§": 574,
      "à½łà½Ľà½ĺ": 575,
      "à½¦à½¢": 576,
      "à½ĳà½Ģà½ł": 577,
      "à½ĸà½ŀà½Ĥ": 578,
      "Ġà½ĸà½¢": 579,
      "à½ĺà½ļà½ĺà½¦": 580,
      "à½¤à½¢": 581,
      "à¾·à½¼à¼ĭ": 582,
      "à½ĺà½ģà½¦": 583,
      "à½ĺà½ģà½ł": 584,
      "Ġà½ĳà½ĸ": 585,
      "à½¡à½Ĥ": 586,
      "Ġà½ĳà½Ķ": 587,
      "à½ĵà½ĺ": 588,
      "à¾³à½´": 589,
      "Ġà½ıà½Ħ": 590,
      "à½Ĥà½¢": 591,
      "Ġï¼": 592,
      "à¾£à½ºà¼ĭ": 593,
      "à½ĸà½ħà½ł": 594,
      "à½ıà½ĵ": 595,
      "à½łà½ķà½¢": 596,
      "Ġà½łà½ĸ": 597,
      "à½£à½ĵ": 598,
      "Ġ4": 599,
      "Ġ(": 600,
      "Ġ5": 601,
      "à½Ŀà½Ħ": 602,
      "Ġà½¤": 603,
      "à¼Ħ": 604,
      "à¼ħ": 605,
      "à¼Ħà¼ħ": 606,
      "à¼Ħà¼ħà¼İ": 607,
      "à½¡à½¢": 608,
      "à½¦à½ł": 609,
      "\"à¼Ħà¼ħà¼İ": 610,
      "à¾¤à¾±": 611,
      "Ġà½ħ": 612,
      "à½Ĳà½¢": 613,
      "à¾Łà½´": 614,
      "à¾Ĵà½´": 615,
      "à½ĵà½Ĥ": 616,
      "à½Ħà½Ĥ": 617,
      "à¾²à¾Ń": 618,
      "à¾©à¾Ńà¼ĭ": 619,
      "à¾¡à¼ĭ": 620,
      "à½ĺà½Ĳà½¢": 621,
      "à¾¨à¼ĭ": 622,
      "à½łà½ĸà½ĳ": 623,
      "à½ĺà½ĵ": 624,
      "à½łà½Ĥà½Ĥ": 625,
      "à½Ĥà½ĵà½ĺ": 626,
      "à½łà½ĸà½ĸ": 627,
      "à½ĸà½ĸ": 628,
      "à½ļà½ĸ": 629,
      "Ġà½ĳà½Ĥ": 630,
      "à½ĸà½Ģà½ł": 631,
      "à½ĺà½ģà½¢": 632,
      "Ġà½Ķà½ł": 633,
      "Ġà½ĸà½¦": 634,
      "Ġ6": 635,
      "à½Ģà½ł": 636,
      "Ġ7": 637,
      "à½ĸà½Ļà½ĵ": 638,
      "Ġ)": 639,
      "20": 640,
      "à¾¡à½´à¼ĭ": 641,
      "à½ģà½ł": 642,
      "Ġà½łà½Ĥ": 643,
      "à½ĸà½£": 644,
      "à¾©à½º": 645,
      "à½ļà½Ĥà½¦": 646,
      "\"\"": 647,
      "à½ĳà½ĺà½¢": 648,
      "à½Ħà½£": 649,
      "à¾¤à½¼": 650,
      "Ġà½Ķ": 651,
      "à½Ĩà½¢": 652,
      "à¾Ĵà¾²à¼ĭ": 653,
      "Ġà½ł": 654,
      "à¾Ļà½º": 655,
      "à½¤à½¦": 656,
      "Ġ8": 657,
      "à¾©à½²à¼ĭ": 658,
      "à¾Ļà½¼": 659,
      "Ġà½Ĥà½ŀ": 660,
      "Ġà½Ĥà½¦": 661,
      "Ġ\"\"": 662,
      "à½¡à½ĵ": 663,
      "à½Ĩà½ł": 664,
      "à½¨à½Ħ": 665,
      "à½łà½Ĥà½ł": 666,
      "à½Ĩà½Ħ": 667,
      "à½łà½Ĥà½£": 668,
      "à½ĸà½ħà½ĳ": 669,
      "à¼ĭà¼İ": 670,
      "à½Ģà½¢": 671,
      "Ġ9": 672,
      "Ġ10": 673,
      "âĢľ": 674,
      "à¾¦à¾±": 675,
      "à¾¦à¾²à½º": 676,
      "à¼¡": 677,
      "Ġà½ĺà½Ħ": 678,
      "à¾¨à½²": 679,
      "à½Ĥà½ĵà½ł": 680,
      "à½ŀà½ĵ": 681,
      "à¾¨à½¼": 682,
      "à½ĵà½łà½Ħ": 683,
      "à½Ĥà½¦à½ĸ": 684,
      "Ġ19": 685,
      "à½łà½ļà½ĺà½¦": 686,
      "à½ĵà½Ĥà½¦": 687,
      "Ġà½łà½ķ": 688,
      "à½¼à¼į\"": 689,
      "Ġà½ĺà½ģà½ł": 690,
      "Ġà½ĸà½ĳ": 691,
      "Ġà½Ĥà½¦à½¢": 692,
      "à½¤à½Ħ": 693,
      "à½ŀà½Ħ": 694,
      "à½ĸà½Łà½ł": 695,
      "à½¢à½ł": 696,
      "à½Ħà½ĵ": 697,
      "à¼Į": 698,
      "à½łà½ĳà½¦": 699,
      "à½Ĥà½ĳà½ĵ": 700,
      "à½ļà½£": 701,
      "à½¨à½¢": 702,
      "à¾·à½¼": 703,
      "à½ĸà½Ģà½Ĥ": 704,
      "à¾¤à¾²à½¼à¼ĭ": 705,
      "à½ĺà½Ħà½ł": 706,
      "à½Ĳà½ĵ": 707,
      "à½ĺà½ĩà½£": 708,
      "à½ĸà½¦à½£": 709,
      "à¾·à½´": 710,
      "Ġï¼Ī": 711,
      "à½Ĥà½Ħà½¦": 712,
      "Ġà½Ĥà½ī": 713,
      "à½§à½ĵ": 714,
      "à¾¥à½´": 715,
      "Ġà½ĳà½ĺà½Ħà½¦": 716,
      "à¾Ĵà½º": 717,
      "à½īà½ĵ": 718,
      "à¾¤à¾²": 719,
      "Ġà½ĵà½Ħ": 720,
      "à½£à½Ĥà½¦": 721,
      "Ġà½¡à½Ħ": 722,
      "à½łà½Ĩà½ĺ": 723,
      "à½Ĥà½ł": 724,
      "à½Ĥà½ıà½ĳ": 725,
      "Ġà½ĺà½īà½ĺ": 726,
      "Ġà½Ĥà½ħ": 727,
      "Ġï¼ī": 728,
      "Ġ12": 729,
      "ĠãĢĢ": 730,
      "à½Ĥà½ŀà½Ĥ": 731,
      "à¼Įà¼į": 732,
      "Ġ11": 733,
      "à½Łà½¦": 734,
      "à½ģà½¦": 735,
      "201": 736,
      "à¼¡à¼": 737,
      "à½£à½ł": 738,
      "à½ģà½¢": 739,
      "Ġà½£à½Ĥ": 740,
      "à½ĺà½ĳà½ł": 741,
      "à¾Ĵà¾±à½´à¼į": 742,
      "Ġà½Ĥà½ŀà½ĵ": 743,
      "Ġà½Ĥà½Ļ": 744,
      "à½ĳà½Ķà½ł": 745,
      "à½£à½łà½Ħ": 746,
      "à½¡à½ł": 747,
      "à¾Ķà½¼à¼ĭ": 748,
      "à½ĺà½ĵà½ł": 749,
      "Ġà½ĺà½Ĳ": 750,
      "à½¢à½ĺ": 751,
      "Ġà½Ķà½¢": 752,
      "âĳ": 753,
      "Ġà½Ĥà½ĵà½¦": 754,
      "à½İ": 755,
      "à¾¤à½¼à¼ĭ": 756,
      "Ġà½łà½ĩ": 757,
      "Ġà½ĳà½Ķà½£": 758,
      "à¼¢": 759,
      "Ġà½łà½ģ": 760,
      "à½ĺà½Ĩà½ĵ": 761,
      "ĠÂ": 762,
      "Ġà½ļà½ĵ": 763,
      "à½Ĩà½Ĥ": 764,
      "à½£à½Ħà½¦": 765,
      "Ġà½ĵà½¦": 766,
      "à½ħà½ĳ": 767,
      "à½ĳà½ĳ": 768,
      "à½ŀà½£": 769,
      "à¾Ĺà½²": 770,
      "à½¦à½Ħà½¦": 771,
      "à½ĳà½Ħà½¦": 772,
      "ãĢĬ": 773,
      "à¾£à½´": 774,
      "Ġ15": 775,
      "à½Ĳà½ĺà½¦": 776,
      "à¼ł": 777,
      "à½ĳà½ĺà½ł": 778,
      "à¾¥à½ºà¼ĭ": 779,
      "à½ķà½£": 780,
      "à¾²à½ºà¼ĭ": 781,
      "à¾«à¼ĭ": 782,
      "à½łà½ļà½ĺ": 783,
      "à½§à½ł": 784,
      "à½Ĥà½¦à½Ħ": 785,
      "à¾¦à¾²": 786,
      "à½ĺà½Ľà½ł": 787,
      "Ġà½ı": 788,
      "à½ķà½ĸ": 789,
      "à½ļà½ĸà½¦": 790,
      "à½¢à½Ĥ": 791,
      "à¾Ĳà¾±à¼ĭ": 792,
      "à½Łà½ĺ": 793,
      "à½ĸà½ĸà½¦": 794,
      "Ġà½Ħà½¦": 795,
      "Ġà½ĸà½¦à½ĺ": 796,
      "à¾¨à½²à¼ĭ": 797,
      "Ġà½łà½Ľà½ĺ": 798,
      "à½Ķà½łà½ĺ": 799,
      "à½ĳà½ĸà½¢": 800,
      "000": 801,
      "à½¢à½ĵ": 802,
      "à½ĸà½ıà½Ĥà½¦": 803,
      "Ġà½ĸà½ħà½¦": 804,
      "à¼½": 805,
      "à½Ĥà½Łà½ĸ": 806,
      "à½Ķà½ĳ": 807,
      "Ġà½ĺà½ĳ": 808,
      "à¼¼": 809,
      "à½łà½ĸà½¢": 810,
      "à½Ħà½ł": 811,
      "Ġà½łà½Ĥà½ĵ": 812,
      "Ġ13": 813,
      "Ġà½ĺà½Ľ": 814,
      "à½ĸà½ıà½ĸ": 815,
      "Ġ200": 816,
      "à½ĵà½ĺà½¦": 817,
      "à½łà½ĩà½£": 818,
      "Ġà½Ĥà½ĵà½ĳ": 819,
      "Ġà½ĸà½Ģ": 820,
      "Ġà½Ļà½ĺ": 821,
      "Ġà½ĺà½Ĥ": 822,
      "à¾¥à¼ĭ": 823,
      "Ġà½Ĥà½£": 824,
      "à½Ķà½ĵ": 825,
      "à½²à¼İ": 826,
      "à½ĺà½ļà½¢": 827,
      "Ġ18": 828,
      "Ġà½ĸà½Ł": 829,
      "à¾¡à½²": 830,
      "Ġà½Ĩà½ĸ": 831,
      "à½Ģà½ĵ": 832,
      "à½ĸà½ĳà½ĺà½¦": 833,
      "Ġ17": 834,
      "à½īà½¢": 835,
      "Ġà½ĩ": 836,
      "à¾Ĳà½¼à¼ĭ": 837,
      "Ġ30": 838,
      "à½ĺà½Ħà½Ĥà½¦": 839,
      "Ġà½ĳà½ĺ": 840,
      "à½łà½Ĩà½ĳ": 841,
      "à¾·à½²": 842,
      "à½łà½ĩà½ĺ": 843,
      "Ġà½ĵà½ĳ": 844,
      "à½¢à½£": 845,
      "à½Ĳà½£": 846,
      "Ġà½ĸà½ħ": 847,
      "Ġà½Ŀà½Ħ": 848,
      "à½łà½ĺ": 849,
      "à½Ĩà½ĸà½¦": 850,
      "à½ĸà½ħà½Ħà½¦": 851,
      "à½¨à½ĵ": 852,
      "à¾Ĳà¾±à½´": 853,
      "à¾¨à¾±": 854,
      "à½£à½Ħ": 855,
      "Ġà½łà½Ľ": 856,
      "Ġà½Ĥà½ĵ": 857,
      "à½Ĥà½ĳà½£": 858,
      "à½Ģà½Ħ": 859,
      "Ġ16": 860,
      "à½ĳà½Ķà½Ħ": 861,
      "à½ĳà½Ķà½Ĥ": 862,
      "à½łà½ĩà½¢": 863,
      "Ġ14": 864,
      "Ġà½£à½ĺ": 865,
      "à¾¤à¾²à½´": 866,
      "Ġ2016": 867,
      "à½¡à½¦": 868,
      "à½ĸà½ħà½¢": 869,
      "à½¡à½Ħà½¦": 870,
      "à¾¤à¾²à½²": 871,
      "à½łà½ķà½Ĥà½¦": 872,
      "à½ŀà½ł": 873,
      "à½łà½ĳà½Ħ": 874,
      "à½¦à½Ħ": 875,
      "à¾¨à¾²à¼ĭ": 876,
      "Ġà½Ĥà½Ł": 877,
      "Ġà½ĸà½Ļ": 878,
      "Ġà½łà½ķà½¢": 879,
      "à½¦à½ĺ": 880,
      "à½Ĥà½ŀà½¦": 881,
      "à¾¦à¾±à½²": 882,
      "à½ĺà½ĳà½Ħà½¦": 883,
      "à½łà½ĳà½ĺ": 884,
      "à¾Ĳà¾²": 885,
      "à½ļà½¢": 886,
      "ï¼ī": 887,
      "à½łà½ĩà½ĸ": 888,
      "Ġ2017": 889,
      "à¼İ\"": 890,
      "à¾Ģ": 891,
      "à½Ĥà½¡à½Ħ": 892,
      "Ġà½ļà½ĳ": 893,
      "à½Ķà½łà½Ħ": 894,
      "à½īà½Ĥ": 895,
      "à½Ķà½İ": 896,
      "Ġà½ĳà½ĺà½Ĥ": 897,
      "à¼ĭà¼ĭ": 898,
      "Ġà½Ĥà½Ħ": 899,
      "à¾±à½´à¼ĭ": 900,
      "à½¢à½¦": 901,
      "à½Ĳà½ł": 902,
      "Ġà½łà½ļ": 903,
      "à½ĸà½¤à½ĺà½¦": 904,
      "97": 905,
      "à½¢à½Ĥà½¦": 906,
      "Ġà½ķà½ĵ": 907,
      "Ġà½Ŀ": 908,
      "à½Ĥà½ıà½Ħ": 909,
      "Ġ2018": 910,
      "à½Ĥà½ĺ": 911,
      "Ġà½Ĥà½ı": 912,
      "Ġà½¡à½ĵ": 913,
      "à½¤à½ĵ": 914,
      "Ġà½ĸà½ıà½Ħ": 915,
      "Ġà½ļà½Ħ": 916,
      "à½łà½Ľà½ĳ": 917,
      "Ġà½Ĥà½ĳ": 918,
      "Ġà½ĸà½ŀ": 919,
      "Ġ25": 920,
      "à¼£": 921,
      "à½Ĥà½¡à½¦": 922,
      "à½ºà¼İ": 923,
      "à¾ķà½²à¼ĭ": 924,
      "Ġ2015": 925,
      "âĢĿ": 926,
      "à½Ħà½¢": 927,
      "Ġà½Ĥà½ĵà½ĺ": 928,
      "à½Ĥà½¤à½ĺ": 929,
      "à½ĵà½¢": 930,
      "âĢĶ": 931,
      "19": 932,
      "à¾Ĳà¾±à½¼à¼ĭ": 933,
      "à½ķà½¢": 934,
      "Ġ.": 935,
      "à½Ĥà½Łà½ł": 936,
      "ï¼Ī": 937,
      "Ġ24": 938,
      "Ġà½Ĥà½Ħà½¦": 939,
      "à¾²à¼į": 940,
      "Ġ2020": 941,
      "à¼¢à¼ł": 942,
      "Ġ2019": 943,
      "à¾¤à½´à¼ĭ": 944,
      "à½ĸà½¦à½ĳ": 945,
      "Ġà½ĳà½ĸà½Ħ": 946,
      "Ġ100": 947,
      "Ġ21": 948,
      "à½ĸà½Ħ": 949,
      "à¼ĭà¼į\"": 950,
      "à¾¦à¾²à¼ĭ": 951,
      "à½ıà½ł": 952,
      "à½ķà½Ĥ": 953,
      "à¾«à½´": 954,
      "Ġà½łà½Ĳà½ĸ": 955,
      "Ġà½ĸà½ĳà½Ĥ": 956,
      "Ġà½ĳà½Ģà½¢": 957,
      "Ġà½Ĥà½Ļà½Ħ": 958,
      "Ġà½Ĥà½¡": 959,
      "Ġà½ĺà½Ĳà½ł": 960,
      "à½ĳà½£": 961,
      "Ġ70": 962,
      "Ġ22": 963,
      "Ġ23": 964,
      "à½Ĥà½¡à½Ĥ": 965,
      "à½¢à½¢": 966,
      "ĠÂ»": 967,
      "Ġ28": 968,
      "Ġâĳ": 969,
      "à½Ħà½ĺ": 970,
      "à½łà½ĳà½ĸà½¦": 971,
      "Ġ26": 972,
      "Ġà½ĳà½¢": 973,
      "Ġà½ĳà½Ģà½ł": 974,
      "Ġ()": 975,
      "à½ĸà½Ļà½£": 976,
      "à½īà½£": 977,
      "à¼¥": 978,
      "Ġà½ŀà½Ħ": 979,
      "à½Ĥà½īà½ĵ": 980,
      "Ġà½łà½Ĩà½¢": 981,
      "à½Ĥà½¦à½ĵ": 982,
      "à¼¤": 983,
      "à½łà½ĳà½ĸ": 984,
      "à¾ķà½¼": 985,
      "Ġ50": 986,
      "à¾¨à½´": 987,
      "à½ĸà½łà½ĺ": 988,
      "Ġà½ĺà½Ĩ": 989,
      "à½¡à½ĸ": 990,
      "à¾Ģà¼ĭ": 991,
      "Ġà½Ģà½ĵ": 992,
      "à½łà½ĸà½ł": 993,
      "à¼©": 994,
      "Ġ40": 995,
      "Ġà½Ĥà½ıà½ĵ": 996,
      "à½ĳà½Ķà½¢": 997,
      "Ġà½Ĥà½ĵà½ł": 998,
      "à¼¨": 999,
      "Ġ31": 1000,
      "Ġ27": 1001,
      "Ġ[": 1002,
      "à¼§": 1003,
      "Ġà½Ĥà½¤": 1004,
      "à¼Ķ": 1005,
      "30": 1006,
      "Ġà½łà½Ĳ": 1007,
      "à½´à¼İ": 1008,
      "à¼¦": 1009,
      "à½¢à½ĺà½¦": 1010,
      "à¾¨à½¼à¼ĭ": 1011,
      "à½ĸà½¦à½Ĥà½¦": 1012,
      "ĠãĢĭãĢĬ": 1013,
      "à½Ĥà½ĳà½Ħà½¦": 1014,
      "Ġà½ĵà½ĺ": 1015,
      "à½ĸà½¦à½Ħ": 1016,
      "à½Ĥà½Łà½ĵ": 1017,
      "ĠÂ·": 1018,
      "Ġà½Ħà½ł": 1019,
      "à¾²à½¼à¼į": 1020,
      "à½ķà½ĺ": 1021,
      "Ġà½ŀà½ĸà½¦": 1022,
      "à½ĸà½ŀà½ĳ": 1023,
      "à½łà½ļà½¢": 1024,
      "à½Ĥà½ĳà½ĺ": 1025,
      "à½ĺà½Ħà½Ĥ": 1026,
      "à½ħà½Ĥ": 1027,
      "à¾Ĳà¾²à¼ĭ": 1028,
      "Ġà½ĸà½ł": 1029,
      "à½ĸà½ĺ": 1030,
      "à¾Ķà½´": 1031,
      "Ġà½Ĳà½Ħ": 1032,
      "à½¤à½Ĥ": 1033,
      "à¾±à½¼à¼ĭ": 1034,
      "Ġà½Ļ": 1035,
      "à½ĺà½£": 1036,
      "à½¨à½ł": 1037,
      "à½ļà½ł": 1038,
      "Ġ29": 1039,
      "Ġ60": 1040,
      "10": 1041,
      "Ġ198": 1042,
      "ĠÂ«": 1043,
      "à¾¦à¾²à½´": 1044,
      "à½ŀà½Ĥ": 1045,
      "à½ıà½Ĥ": 1046,
      "à½Ĭ": 1047,
      "à½Ŀà½ĵ": 1048,
      "à½łà½Ĳà½ĳ": 1049,
      "Ġ0": 1050,
      "à½Ĥà½ĳà½ĺà½¦": 1051,
      "Ġà½ĵà½Ĥà½¦": 1052,
      "Ġà½ĸà½Ļà½ĵ": 1053,
      "à¾Ĵà¾²à½º": 1054,
      "à½łà½Ĥà½¦": 1055,
      "à½ĳà½ĺà½ĵ": 1056,
      "à½ĺà½ī": 1057,
      "Ġà½¤à½Ħ": 1058,
      "Ġ199": 1059,
      "..": 1060,
      "à½Ķà½Ħ": 1061,
      "Ġ]": 1062,
      "ãĢģ": 1063,
      "32": 1064,
      "à½Į": 1065,
      "Ġà½§à½ĵ": 1066,
      "Ġà¼¼": 1067,
      "à½łà½Ĥà½Ħà½¦": 1068,
      "à¼¡à¼©": 1069,
      "à½£à½¢": 1070,
      "à½ĵà½ł": 1071,
      "à½łà½Ĩà½Ħ": 1072,
      "à¾ķà½ºà¼ĭ": 1073,
      "Ġà½ģà½Ħ": 1074,
      "17": 1075,
      "Ġà½¤à½¢": 1076,
      "à½ĳà½Ĥà½¢": 1077,
      "à½łà½Ĥà½¢": 1078,
      "Ġà½ĺà½ģà½¦": 1079,
      "12": 1080,
      "à¾Ķà¼į": 1081,
      "à½¡à½£": 1082,
      "Ġ2014": 1083,
      "58": 1084,
      "Ġà½ĸà½Ģà½ł": 1085,
      "à½¦à½ĳ": 1086,
      "Ġà½ĺà½ģ": 1087,
      "à¾Ĳà½ºà¼ĭ": 1088,
      "Ġà½ģà½Ĥ": 1089,
      "à½¾": 1090,
      "à¾Ĳà½º": 1091,
      "Ġà½ĺà½ļà½ĵ": 1092,
      "à¾±à¼į": 1093,
      "Ġà½łà½ĩà½¢": 1094,
      "Ġà½ĵà½Ĥ": 1095,
      "89": 1096,
      "à¾Ĵà¼ĭ": 1097,
      "à½¡à½ĺà½¦": 1098,
      "Ġï": 1099,
      "ĠâĢĻ": 1100,
      "Ġà½Ħà½£": 1101,
      "à½£à½ĸ": 1102,
      "Ġà½ĸà½ħà½ł": 1103,
      "16": 1104,
      "200": 1105,
      "à½Ĩà½ĺ": 1106,
      "50": 1107,
      "à¾¥à½´à¼ĭ": 1108,
      "Ġ80": 1109,
      "à½ģà½ĺ": 1110,
      "à¾²à½²à¼į": 1111,
      "Ġà½łà½ĳà½¦": 1112,
      "60": 1113,
      "Ġà½ĸà½Ĥ": 1114,
      "à½łà½ĸà½Ħà½¦": 1115,
      "Ġà½¢à½ĸ": 1116,
      "à¼Įà¼İ": 1117,
      "à¾¦à¼ĭ": 1118,
      "à½ķà½ł": 1119,
      "à¼¢à¼łà¼¡à¼": 1120,
      "Ġà½ĳà½Ĥà½ł": 1121,
      "ĠâĢĺ": 1122,
      "Ġà½ĸà½Łà½ł": 1123,
      "à½łà½ļà½£": 1124,
      "à½Łà½Ħà½¦": 1125,
      "25": 1126,
      "Ġ2000": 1127,
      "à½ĸà½Ļà½ł": 1128,
      "à¾¨à¾²": 1129,
      "Ġà½ĺà½¢": 1130,
      "à½Ĳà½ĸ": 1131,
      "à¾¨à¾±à½´": 1132,
      "à¾«à½²": 1133,
      "à½ĸà½łà½Ħ": 1134,
      "à½ĸà½ĵ": 1135,
      "à½ĸà½Ģà½¢": 1136,
      "Ġà½¦à½Ħà½¦": 1137,
      "à¾·à½´à¼ĭ": 1138,
      "2016": 1139,
      "à½ĸà½¦à½ĺà½¦": 1140,
      "Ġà½ĵà½ĵ": 1141,
      "à½ĺà½Ħà½¢": 1142,
      "à¾Łà½¼à¼ĭ": 1143,
      "Ġà¼½": 1144,
      "à¾Ńà¼į": 1145,
      "à½ļà½Ħà½¦": 1146,
      "à½łà½ĸà½Ĥ": 1147,
      "Ġà½Ķà½ĳ": 1148,
      "Ġà½ĺà½ģà½¢": 1149,
      "Ġà½ĺà½Ħà½ł": 1150,
      "Ġà½Ĳà½ĳ": 1151,
      "à¾Łà½²": 1152,
      "Ġà½ĺà½ĩ": 1153,
      "à½Ĥà½ħà½ĵ": 1154,
      "à½ĳà½ĵ": 1155,
      "Ġà½ĳà½Ķà½ł": 1156,
      "à¾¤à¾²à½º": 1157,
      "à¾«à½²à¼ĭ": 1158,
      "Ġà½Łà½¦": 1159,
      "Ġà½Ĳà½ĸà½¦": 1160,
      "Ġà½¡à½¢": 1161,
      "à½Ĥà½¡à½¢": 1162,
      "à¾¥à½²": 1163,
      "à½Ĥà½īà½ł": 1164,
      "Ġà½Ĥà½¦à½Ħ": 1165,
      "ĠâĢĶ": 1166,
      "à½łà½ķà½Ħ": 1167,
      "Ġà½īà½ĺà½¦": 1168,
      "à½Ĩà½ĵ": 1169,
      "44": 1170,
      "Ġ300": 1171,
      "à¾¦à½´": 1172,
      "ĠA": 1173,
      "Ġï¼Īï¼ī": 1174,
      "33": 1175,
      "ãĢĭ": 1176,
      "Ġà½Ĥà½¤à½ĺ": 1177,
      "75": 1178,
      "--": 1179,
      "70": 1180,
      "à½łà½ķà½Ħà½¦": 1181,
      "Ġà½ĺà½Ĳà½¢": 1182,
      "à½¾à¼ĭ": 1183,
      "Ġ35": 1184,
      "Ġà½ģà½ĺà½¦": 1185,
      "66": 1186,
      "à½¼à¼İ\"": 1187,
      "Ġà½Ĥà½ıà½ĺ": 1188,
      "11": 1189,
      "à½ĸà½Ģà½£": 1190,
      "2017": 1191,
      "Ġà½ĸà½ı": 1192,
      "ĠâĢĿâĢľ": 1193,
      "88": 1194,
      "à½¦à½Ĥ": 1195,
      "2018": 1196,
      "âĴ": 1197,
      "à½Ķà½Ĥà½¦": 1198,
      "à¾¤à¼ĭ": 1199,
      "à½¦à½ĵ": 1200,
      "à¾£à¼į": 1201,
      "Ġ1000": 1202,
      "28": 1203,
      "Ġà½ĳà½Ģ": 1204,
      "à¾Ĵà½´à¼ĭ": 1205,
      "Ġ/": 1206,
      "à½§à½Ħ": 1207,
      "à¾±à½²à¼į": 1208,
      "à½ĸà½¤à½ł": 1209,
      "à½łà½Ĳà½Ĥ": 1210,
      "Ġ45": 1211,
      "à½ĺà½ĵà½ĵ": 1212,
      "Ġ90": 1213,
      "Ġà½ħà½ĵ": 1214,
      "14": 1215,
      "ï¼ļ": 1216,
      "à½ĳà½Ĥà½Ĥ": 1217,
      "Ġà½Ĳà½Ĥ": 1218,
      "à½ĺà½Ĥà½¢": 1219,
      "Ġ500": 1220,
      "à½Ĥà½ĳà½Ħ": 1221,
      "à½ĸà½ĳà½ł": 1222,
      "à¾Ĳà¾±à½²à¼ĭ": 1223,
      "77": 1224,
      "à½¼à¼ĭà¼İ": 1225,
      "Ġ3000": 1226,
      "13": 1227,
      "Ġ2013": 1228,
      "90": 1229,
      "à½¿": 1230,
      "à½łà½ĩà½ł": 1231,
      "à¾£à½º": 1232,
      "à½ĺà½Ħà½£": 1233,
      "à¼¡à¼ł": 1234,
      "à½Łà½Ĥ": 1235,
      "à½ĳà½ĸà½ĵ": 1236,
      "Ġà½ħà½Ħ": 1237,
      "15": 1238,
      "Ġ32": 1239,
      "à¾ľ": 1240,
      "à¾¦à½¼": 1241,
      "à¾Ĵà¾²à½¼à¼ĭ": 1242,
      "à½Ĥà½ĵà½Ĥ": 1243,
      "Ġà½Ħà½Ĥ": 1244,
      "Ġ2012": 1245,
      "2019": 1246,
      "à¾·à¼į": 1247,
      "à¾©à½´": 1248,
      "âĢ¦": 1249,
      "à¾Ĳà¼ĭ": 1250,
      "2015": 1251,
      "Ġ33": 1252,
      "Ġà½ĳà½ĺà½¢": 1253,
      "Ġ36": 1254,
      "Ġà½Ĥà½¦à½£": 1255,
      "22": 1256,
      "à¾Łà¼į": 1257,
      "93": 1258,
      "ĠP": 1259,
      "18": 1260,
      "âĢĶâĢĶ": 1261,
      "ĠâĢ¦": 1262,
      "à¾¥à½º": 1263,
      "à¾£à½¼à¼ĭ": 1264,
      "à¾Ĺà½ºà¼į": 1265,
      "à½łà½ĳà½¢": 1266,
      "Ġà½ĸà½£": 1267,
      "34": 1268,
      "Ġ34": 1269,
      "35": 1270,
      "Ġà½Ĩà½Ħ": 1271,
      "92": 1272,
      "Ġ38": 1273,
      "à¾Ļà½ºà¼ĭ": 1274,
      "à½Ĥà½ŀà½£": 1275,
      "Ġà½¡à½¦": 1276,
      "à½łà½¢": 1277,
      "à¾·à½ºà¼ĭ": 1278,
      "21": 1279,
      "an": 1280,
      "à¾Łà½ºà¼İ": 1281,
      "Ġà½łà½Ĥà½Ĥ": 1282,
      "à½Ĥà½ĸ": 1283,
      "Ġà½Ĥà½¡à½Ħ": 1284,
      "à½Ĥà½¤à½Ĥà½¦": 1285,
      "Ġà½ĺà½ĳà½ł": 1286,
      "24": 1287,
      "Ġà½łà½ĸà½ĳ": 1288,
      "2020": 1289,
      "à½ĺà½ĵà½¢": 1290,
      "Ġà½ıà½ĵ": 1291,
      "à¾±à¼İ": 1292,
      "Ġ2010": 1293,
      "Ġ5000": 1294,
      "Ġà½ĺà½ĵ": 1295,
      "à½Ģà½¦": 1296,
      "ï¼ħ": 1297,
      "Ġà½ĺà½ļà½ĺà½¦": 1298,
      "à½Ĩà½łà½Ħ": 1299,
      "à¾²à¼İ": 1300,
      "à½łà½ļà½Ħ": 1301,
      "âĳł": 1302,
      "à½¤à½ĺ": 1303,
      "à¾°": 1304,
      "Ġà½ĸà½¤à½ĳ": 1305,
      "Ġà½Ķà½İ": 1306,
      "Ġï¹": 1307,
      "Ġà½łà½ĩà½ĺ": 1308,
      "ĠâĢ¦âĢ¦": 1309,
      "Ġà½Ĥà½Łà½ł": 1310,
      "ĠâĢľâĢĿ": 1311,
      "76": 1312,
      "à¾¥à½²à¼ĭ": 1313,
      "à½¤à½ł": 1314,
      "Ġà½ĺà½ł": 1315,
      "à½£à½ĳ": 1316,
      "Ġà½łà½Ĩ": 1317,
      "ï¼Į": 1318,
      "Ġà½¨à½¢": 1319,
      "Ġ177": 1320,
      "Ġ400": 1321,
      "Ġà½£à½ĵ": 1322,
      "à¾±à½²à¼İ": 1323,
      "ï¹": 1324,
      "à¾³à¼į": 1325,
      "à¾·à½²à¼ĭ": 1326,
      "à½ĺà½Ľà½Ħà½¦": 1327,
      "à½Ļà½ĵ": 1328,
      "à¾·à¼į\"": 1329,
      "96": 1330,
      "Ġà½łà½Ĩà½ĺ": 1331,
      "à½Ĥà½Łà½¢": 1332,
      "23": 1333,
      "Ġà½ŀà½£": 1334,
      "Ġà½łà½Ľà½ĳ": 1335,
      "à½ĸà½Ģà½¦": 1336,
      "ĠC": 1337,
      "à½Łà½ł": 1338,
      "à¼·": 1339,
      "ãĢģï¼ļ": 1340,
      "Ġà½¨à½ĵ": 1341,
      "à¾¡à½ºà¼į": 1342,
      "80": 1343,
      "à½Ĳà½ĺ": 1344,
      "Ġ195": 1345,
      "à¾¨à¾±à½¼": 1346,
      "à¾Ļà½²à¼ĭ": 1347,
      "à½»": 1348,
      "Ġà½Ĥà½ĳà½ĵ": 1349,
      "à½±à¼į": 1350,
      "Ġà½¦à½Ħ": 1351,
      "Ġ65": 1352,
      "Ġà½ķà½£": 1353,
      "co": 1354,
      "Ġà¼¢": 1355,
      "Ġ37": 1356,
      "Ġà½¨à½Ħ": 1357,
      "40": 1358,
      "à¾Ĵà¾±à½¼": 1359,
      "à¾¨à½º": 1360,
      "Ġà½Ĥà½¡à½¦": 1361,
      "à½ķà½¦": 1362,
      "Ġà½Ĳà½ł": 1363,
      "65": 1364,
      "Ġ2011": 1365,
      "âģ": 1366,
      "Ġ55": 1367,
      "âģµ": 1368,
      "à½Ĥà½ĳà½ł": 1369,
      "ĠâĢĿ[": 1370,
      "Ġà¼¡à¼": 1371,
      "à½Łà½Ĥà½¦": 1372,
      "à¼¢à¼łà¼ł": 1373,
      "26": 1374,
      "à½ĸà½Ļà½¦": 1375,
      "à¼ĭà¼¼": 1376,
      "Ġà½łà½ĸà½¢": 1377,
      "Ġ95": 1378,
      "Ġà½łà½ķà½Ĥà½¦": 1379,
      "Ġ43": 1380,
      "27": 1381,
      "ĠãĢĭ(": 1382,
      "à¾©à¾Ń": 1383,
      "Ġà½ĳà½ĳ": 1384,
      "à½Ĥà½¦à½ł": 1385,
      "à½łà½ĩà½Ħ": 1386,
      "à½¤à½ĳ": 1387,
      "Ġ39": 1388,
      "âĢĭ": 1389,
      "Ġà½ĸà½ĵ": 1390,
      "à½Ŀà½ł": 1391,
      "à¾±à¾Ģà¼ĭ": 1392,
      "Â«": 1393,
      "\"âĢĭ": 1394,
      "Ġ75": 1395,
      "29": 1396,
      "ha": 1397,
      "Ġ-": 1398,
      "à¾Łà½²à¼ĭ": 1399,
      "âĳ¡": 1400,
      "à½łà½ĵ": 1401,
      "à¾«à½´à¼ĭ": 1402,
      "46": 1403,
      "à¾²à¾Ńà¼į": 1404,
      "Ġ150": 1405,
      "ãĢĲ": 1406,
      "ĠãĢĳ": 1407,
      "à½±à½²à¼ĭ": 1408,
      "ĠâĢ¢": 1409,
      "Ġ4000": 1410,
      "à¾±à½ºà¼į": 1411,
      "Ġ197": 1412,
      "Ġ46": 1413,
      "45": 1414,
      "com": 1415,
      "36": 1416,
      "à¾Ĵà¾±à¼į": 1417,
      "Ġ48": 1418,
      "à½ĸà½Ĥà½¢": 1419,
      "Ġà¼¡à¼©": 1420,
      "à½ĸà½ħà½Ĥ": 1421,
      "à¾ľà½²à¼ĭ": 1422,
      "à½ĵà½Ħà½¦": 1423,
      "Ġà½ķà½Ĥ": 1424,
      "Ġ120": 1425,
      "Ġà½Ĩà½¢": 1426,
      "à¾¨à½ºà¼ĭ": 1427,
      "Ġà½łà½Ĥà½£": 1428,
      "Ġ56": 1429,
      "à½Ļà½Ĥ": 1430,
      "à½»à¼ĭ": 1431,
      "Ġà½¨à½ł": 1432,
      "Ġ44": 1433,
      "98": 1434,
      "Ġà½Łà½ĸ": 1435,
      "à½Łà½Ħ": 1436,
      "Ġ47": 1437,
      "in": 1438,
      "à½±à½ºà¼ĭ": 1439,
      "à½Ĥà½¡à½ł": 1440,
      "à½§à½ĺ": 1441,
      "à½ķà½Ħà½¦": 1442,
      "Ġ2009": 1443,
      "Ġ600": 1444,
      "à¼łà¼ł": 1445,
      "95": 1446,
      "38": 1447,
      "ĠG": 1448,
      "à½ŀà½Ĥà½¦": 1449,
      "à¼ĭà¼½": 1450,
      "Ġ:": 1451,
      "Ġà½¡à½ĸ": 1452,
      "82": 1453,
      "à¾Ĵà½¼à¼į": 1454,
      "Ġp": 1455,
      "85": 1456,
      "à½ĺà½Ħà½¦": 1457,
      "à½±à½´": 1458,
      "Ġà½ĺà½Ľà½ĳ": 1459,
      "Ġà½łà½ĳà½ĺ": 1460,
      "ĠâĴ": 1461,
      "Ġà½Ĩà½Ĥ": 1462,
      "Â·": 1463,
      "Ġà½ĸà½Łà½Ħ": 1464,
      "Ġ800": 1465,
      "86": 1466,
      "à¾©à½ºà¼į": 1467,
      "à¼¡à¼¢": 1468,
      "42": 1469,
      "er": 1470,
      "à½łà½ĳà½ĵ": 1471,
      "à¾©à¼į": 1472,
      "__": 1473,
      "à¾Ĵà¾²à¼į": 1474,
      "Ġà½Ĥà½ħà½ĵ": 1475,
      "87": 1476,
      "99": 1477,
      "Ġà½ŀà½ĵ": 1478,
      "Ġ2006": 1479,
      "Ġà½ĺà½ģà½ĵ": 1480,
      "Ġà½ĸà½¤": 1481,
      "2014": 1482,
      "âĳ¢": 1483,
      "Ġ...": 1484,
      "à½ģà½ĳ": 1485,
      "47": 1486,
      "à½łà½Ĥà½ĳ": 1487,
      "ĠT": 1488,
      "Ġ42": 1489,
      "ĠB": 1490,
      "à½ħà½¢": 1491,
      "Ġà¼¡": 1492,
      "à½ħà½ł": 1493,
      "48": 1494,
      "Ġ2008": 1495,
      "à½ª": 1496,
      "on": 1497,
      "Ġà½łà½Ĥà½ł": 1498,
      "ï¼½": 1499,
      "Ġà½¦à½ł": 1500,
      "à¾·à½º": 1501,
      "31": 1502,
      "Ġà½Ĥà½Łà½ĸ": 1503,
      "Ġà½ķà½¢": 1504,
      "à¾Ļà½´": 1505,
      "Ġ41": 1506,
      "69": 1507,
      "ĠãĢĭï¼Ī": 1508,
      "Ġ1500": 1509,
      "Ġà½Ĥà½¢": 1510,
      "49": 1511,
      "Ġà¼£": 1512,
      "Ġ097": 1513,
      "ĠS": 1514,
      "à½±à½²": 1515,
      "Ġà½Łà½Ħà½¦": 1516,
      "Ġï¹Ļ": 1517,
      "Ġà½ĳà½ĺà½ł": 1518,
      "à½ĺà½ģà½£": 1519,
      "37": 1520,
      "à¾Ĵà¾±à½²": 1521,
      "39": 1522,
      "à½ĩà½Ĥ": 1523,
      "Ġà½§à½ł": 1524,
      "à½ģà½Ħà½¦": 1525,
      "à½łà½ļà½ĸ": 1526,
      "Ġ57": 1527,
      "Ġ54": 1528,
      "Ġà½ĸà½Ģà½Ĥ": 1529,
      "Ġ155": 1530,
      "à¾°à¼ĭ": 1531,
      "55": 1532,
      "67": 1533,
      "Ġà½łà½ĸà½ł": 1534,
      "Ġà¼¢à¼łà¼¡à¼": 1535,
      "Ġ58": 1536,
      "970": 1537,
      "à½łà½ĳà½ł": 1538,
      "Ġ110": 1539,
      "à½¢à½Ħà½¦": 1540,
      "à¾¦à½´à¼ĭ": 1541,
      "Ġ2005": 1542,
      "à½¤à½£": 1543,
      "Ġà½Ģà½¢": 1544,
      "zha": 1545,
      "Ġ85": 1546,
      "Ġ98": 1547,
      "Ġâĳł": 1548,
      "à½ĳà½Ķà½Ħà½¦": 1549,
      "63": 1550,
      "à¼¡à¼¤": 1551,
      "ï¹ļ": 1552,
      "à½ķà½Ħ": 1553,
      "309": 1554,
      "Ġ2007": 1555,
      "à½ŀà½¢": 1556,
      "Ġà½Ĥà½īà½ĵ": 1557,
      "Ġ6000": 1558,
      "à½Ļà½Ħ": 1559,
      "âĳ£": 1560,
      "Ġà½Ĥà½¡à½Ĥ": 1561,
      "Ġ770": 1562,
      "ãĢĳ": 1563,
      "Ġà½Łà½ĺ": 1564,
      "Ġà½łà½Ĩà½ĳ": 1565,
      "à½ĩà½ł": 1566,
      "Ġà½ĺà½Ľà½ł": 1567,
      "68": 1568,
      "à½ĳà½Ħà½Ħà½¦": 1569,
      "Ġ52": 1570,
      "à¾ķà½º": 1571,
      "Ġ99": 1572,
      "à½±à½¼à¼ĭ": 1573,
      "à½ĸà½Ģà½Ħ": 1574,
      "à½Ĥà½¡à½ĸ": 1575,
      "Ġ53": 1576,
      "Ġà½łà½ĩà½ĸ": 1577,
      "à½ĺà½ĳà½¦": 1578,
      "à¼¡à¼§": 1579,
      "41": 1580,
      "à¾¥à½¼à¼ĭ": 1581,
      "à½Ĺ": 1582,
      "à¾±à¾Ńà¼ĭ": 1583,
      "à½ĺà½ĺ": 1584,
      "à½ĸà½¦à½Ħà½¦": 1585,
      "2013": 1586,
      "à½Ĥà½¤à½Ĥ": 1587,
      "Ġ74": 1588,
      "à½ĸà½¤à½¦": 1589,
      "Ġà½ĸà½ĸ": 1590,
      "Ġ49": 1591,
      "64": 1592,
      "ĠD": 1593,
      "à¼¡à¼¡": 1594,
      "5832": 1595,
      "Ġ177970": 1596,
      "88309": 1597,
      "Ġ17797088309": 1598,
      "à½ĸà½Ģà½ĸ": 1599,
      "à½Ĥà½ĳà½Ĥà½¦": 1600,
      "à½ģà½£": 1601,
      "Ġ7705832": 1602,
      "à¼ĭà¼ĭà¼ĭà¼ĭ": 1603,
      "Ġ--": 1604,
      "à½ĸà½¤à½Ĥà½¦": 1605,
      "Ġ51": 1606,
      "à½ĳà½ĸà½£": 1607,
      "Ġà½Ģà½ł": 1608,
      "à¼¡à¼¦": 1609,
      "974": 1610,
      "893": 1611,
      "à½Ĥà½¦à½¦": 1612,
      "à½ĸà½¤à½£": 1613,
      "976": 1614,
      "ĠâĢĶâĢĶ": 1615,
      "Ġà½£à½Ħ": 1616,
      "Ġâĳ¡": 1617,
      "Â³": 1618,
      "Ġ?": 1619,
      "à¼¡à¼£": 1620,
      "à½§à½¢": 1621,
      "Ġ)ãĢĭ": 1622,
      "Ġà½Ľ": 1623,
      "ï¼Ĳ": 1624,
      "101": 1625,
      "à½Ĥà½ıà½ł": 1626,
      "Ġà½ĸà½¦à½Ħ": 1627,
      "Ġà½Ħà½ĵ": 1628,
      "Ġà½Ĩà½ĳ": 1629,
      "Ġ2004": 1630,
      "Ġ1860": 1631,
      "à¼¡à¼¥": 1632,
      "à¾¤à¾²à½²à¼ĭ": 1633,
      "Ġ66": 1634,
      "Ġ.....": 1635,
      "ĠI": 1636,
      "à½ĺà½łà½Ħ": 1637,
      "à½Ĥà½ģ": 1638,
      "à½²à¼ĭà¼ĭ": 1639,
      "à½¨à½ĺ": 1640,
      "Ġà½Ĳà½£": 1641,
      "à¾¦à¾²à½²": 1642,
      "Ġà½ģà½ĺ": 1643,
      "Ġà½ļà½ł": 1644,
      "84": 1645,
      "Ġà½ĳà½Ķà½¢": 1646,
      "9789": 1647,
      "9789893": 1648,
      "Ġï¼ļ": 1649,
      "ãĢĢ": 1650,
      "Ġà½Ĥà½Łà½ĵ": 1651,
      "à½īà½Ħ": 1652,
      "62": 1653,
      "à½īà½ł": 1654,
      "Ġ18609789893": 1655,
      "Ġà½łà½ĳà½ĸ": 1656,
      "à¼·à¼ĭ": 1657,
      "à½¼à½¾à¼ĭ": 1658,
      "à½¤à½Ĥà½¦": 1659,
      "Ġà½£à½ł": 1660,
      "âĳ¤": 1661,
      "Ġ2003": 1662,
      "à¾·à½¼à¼į": 1663,
      "94": 1664,
      "Ġà½Ĳà½¢": 1665,
      "Ġ770583228": 1666,
      "Ġà½Ĳà½ĵ": 1667,
      "à½ĸà½Łà½¦": 1668,
      "ar": 1669,
      "3974": 1670,
      "à½ĺà½łà½ĺ": 1671,
      "3974201": 1672,
      "Ġà½¡à½Ĥ": 1673,
      "Ġ68": 1674,
      "179": 1675,
      "Ġà½ļà½Ĥà½¦": 1676,
      "à½ĸà½Ĥà½ĺ": 1677,
      "âĳ¥": 1678,
      "771": 1679,
      "Ġ700": 1680,
      "Ġ97": 1681,
      "444": 1682,
      "05": 1683,
      "Ġà½ĸà½ĳà½ĺà½¦": 1684,
      "à½Ĥà½ĳà½ĸ": 1685,
      "à½Ħà½ĳ": 1686,
      "à½ĺà½ļà½Ħ": 1687,
      "Ġà½ĺà½ĵà½ł": 1688,
      "à¾²à½¼à¼İ": 1689,
      "Ġ160": 1690,
      "à½łà½ķà½ĵ": 1691,
      "Ġ2002": 1692,
      "61": 1693,
      "Ġà½¢à½Ĥ": 1694,
      "Ġà½īà½Ĥ": 1695,
      "1766": 1696,
      "Ġ67": 1697,
      "Ġ6101": 1698,
      "9058": 1699,
      "Ġzha": 1700,
      "3092": 1701,
      "à¼¡à¼¨": 1702,
      "253974201": 1703,
      "75771": 1704,
      "Ġ155976": 1705,
      "17993": 1706,
      "9058444": 1707,
      "30921766": 1708,
      "Ġ15597675771": 1709,
      "Ġ309058444": 1710,
      "Ġ610117993": 1711,
      "à½łà½ģà½Ħ": 1712,
      "Ġ8000": 1713,
      "à¾±à¾Ģ": 1714,
      "à½ĺà½īà½ĵ": 1715,
      "à½Ĥà½Ļà½Ĥà½¦": 1716,
      "ti": 1717,
      "à¾³à½¼à¼į": 1718,
      "Ġà¼¤": 1719,
      "Ġ62": 1720,
      "à¾³à½ºà¼ĭ": 1721,
      "la": 1722,
      "à¾¦à½²": 1723,
      "à½Ŀà½¢": 1724,
      "à½¥": 1725,
      "à½Ģà½£": 1726,
      "à¾©à½²à¼į": 1727,
      "ĠM": 1728,
      "Ġà½ĸà½Ħ": 1729,
      "Ġà½īà½£": 1730,
      "329": 1731,
      "à½łà½Ĥà½Ĥà½¦": 1732,
      "à½ĸà½ħà½Ĥà½¦": 1733,
      "à¾¨à¾±à½´à¼ĭ": 1734,
      "Ġ139": 1735,
      "\"âĢľ": 1736,
      "à¾Ĳà½´à¼į": 1737,
      "43": 1738,
      "322": 1739,
      "57": 1740,
      "Ġ72": 1741,
      "âĳ¦": 1742,
      "sh": 1743,
      "2012": 1744,
      "01": 1745,
      "Ġ1200": 1746,
      "à½Łà½ĵ": 1747,
      "Ġà½īà½ĵ": 1748,
      "à½ºà½ºà¼ĭ": 1749,
      "à½Ĥà½Ĥ": 1750,
      "à½ļà½Ĥ": 1751,
      "or": 1752,
      "Ġ130": 1753,
      "Ġ......": 1754,
      "à¾³à½´à¼į": 1755,
      "à½ĺà½ļà½£": 1756,
      "Ġ81": 1757,
      "à¾Ĳà¾²à½¼": 1758,
      "74": 1759,
      "Ġ2030": 1760,
      "le": 1761,
      "Ġà½Ĥà½īà½ł": 1762,
      "Ġï¼īãĢĭ": 1763,
      "à¼µ": 1764,
      "à½Ķà½ĸ": 1765,
      "83": 1766,
      "Ġà½£à½Ĥà½¦": 1767,
      "à½Ĥà½ĵà½Ħà½¦": 1768,
      "329322": 1769,
      "53": 1770,
      "Ġà½Ĩà½Ĥà½¦": 1771,
      "Ġ96": 1772,
      "à¾¨à¾±à½¼à¼ĭ": 1773,
      "//": 1774,
      "à½ģà½ĵ": 1775,
      "à¾¤à¾²à¼ĭ": 1776,
      "Ġ59": 1777,
      "Ġà½Ĥà½ŀà½¦": 1778,
      "\"ãĢĬ": 1779,
      "à½łà½Ĩà½£": 1780,
      "333": 1781,
      "à½¦à½¦": 1782,
      "à¼ĭà¼İ\"": 1783,
      "en": 1784,
      "Ġà½Ĳà½ĺà½¦": 1785,
      "Ġà½łà½ĩà½Ħ": 1786,
      "91": 1787,
      "Ġà¼¥": 1788,
      "Ġ180": 1789,
      "Ġ64": 1790,
      "81": 1791,
      "56": 1792,
      "Ġà½ĳà½£": 1793,
      "Ġà½ĺà½Ħà½Ĥà½¦": 1794,
      "Ġà½ĺà½Ĥà½¢": 1795,
      "Ġà½ĵà½¢": 1796,
      "à¾±à½±à¼ĭ": 1797,
      "ĠâĢĿ(": 1798,
      "Ġ77": 1799,
      "âĳ§": 1800,
      "Ġ140": 1801,
      "Ġâĳ¢": 1802,
      "ĠW": 1803,
      "âĳ¨": 1804,
      "Ġà½ļà½Ħà½¦": 1805,
      "Ġ2001": 1806,
      "à¼£à¼ł": 1807,
      "Ġ17730921766": 1808,
      "ĳï¼": 1809,
      "Ġ318": 1810,
      "59": 1811,
      "Ġ71": 1812,
      "Ġn": 1813,
      "Ġà½Ħà½Ħ": 1814,
      "à½²à½²à¼ĭ": 1815,
      "Ġà½ŀà½Ĥ": 1816,
      "Ġ82": 1817,
      "Ġ88": 1818,
      "Ġà¼¢à¼łà¼ł": 1819,
      "ãĢĤ": 1820,
      "Ġà½ıà½Ĥ": 1821,
      "à¾²à½´à¼į": 1822,
      "Ġ63": 1823,
      "à¾ķà½´": 1824,
      "03": 1825,
      "04": 1826,
      "à¾ĥ": 1827,
      "Ġï¼»": 1828,
      "Ġ73": 1829,
      "à½Ĥà½ıà½ĺà½¦": 1830,
      "âĢĺ": 1831,
      "54": 1832,
      "Ġà½¢à½¦": 1833,
      "51": 1834,
      "à½łà½ĳà½Ĥ": 1835,
      "à½Ļà½ł": 1836,
      "Ġ83": 1837,
      "à½ĳà½Ĥà½¦": 1838,
      "à½Ĥà½Ļà½Ĥ": 1839,
      "Ġ76": 1840,
      "Ġ4500": 1841,
      "à½ĳà½ĸà½ł": 1842,
      "à¾¨à½´à¼ĭ": 1843,
      "à¾¦à½²à¼ĭ": 1844,
      "Ġ86": 1845,
      "Ġà½Ħà½¢": 1846,
      "à½Ĥà½Łà½¦": 1847,
      "à½ĸà½¤à½ĺ": 1848,
      "02": 1849,
      "à¼¡à¼©à¼©": 1850,
      "Ġ1300": 1851,
      "52": 1852,
      "Ġ78": 1853,
      "972": 1854,
      "Ġ87": 1855,
      "07": 1856,
      "oo": 1857,
      "à¾¡à¾²à¼ĭ": 1858,
      "Ġà½Ĳà½ĸ": 1859,
      "à¾ļ": 1860,
      "Ġ61": 1861,
      "ï¼Įï¼Į": 1862,
      "âĢ¢": 1863,
      "ĠâĢĿï¼Ī": 1864,
      "ĠK": 1865,
      "Ġ93": 1866,
      "78": 1867,
      "à½Ĥà½ħà½¢": 1868,
      "Ġï¹ļ": 1869,
      "Ġà¼§": 1870,
      "Ġà½§à½Ħ": 1871,
      "Ġà½ŀà½ł": 1872,
      "2010": 1873,
      "Ġà½łà½Ĥà½¦": 1874,
      "Ġà¼¦": 1875,
      "Ġ84": 1876,
      "Ġà½ļà½£": 1877,
      "ï¼»": 1878,
      "Ġà½ĺà½Ħà½£": 1879,
      "à¼¢à¼łà¼¡à¼¨": 1880,
      "Ġ09716": 1881,
      "ĠE": 1882,
      "Ġà½ĺà½£": 1883,
      "Ġ1995": 1884,
      "890": 1885,
      "Ġà½¡à½Ħà½¦": 1886,
      "âĳ©": 1887,
      "72": 1888,
      "73": 1889,
      "à½ĳà½ĺà½¦": 1890,
      "Ġà½łà½ĸà½ĸ": 1891,
      "à½İà½ł": 1892,
      "Ġ1986": 1893,
      "Ġ1994": 1894,
      "Ġ69": 1895,
      "Ġ09716329322": 1896,
      "à½ĸà½ª": 1897,
      "Ġ1987": 1898,
      "à¼¡à¼©à¼¨": 1899,
      "ï¼İ": 1900,
      "Ġ7000": 1901,
      "Ġ89": 1902,
      "âģµâģµ": 1903,
      "à¾¨à¾²à½º": 1904,
      "08": 1905,
      "Ġï¼ī\"": 1906,
      "Ġâĳ£": 1907,
      "à¼¢à¼¨": 1908,
      "cn": 1909,
      "ta": 1910,
      "ĠL": 1911,
      "Ġ92": 1912,
      "Ġ1985": 1913,
      "ww": 1914,
      "Ġà½ĳà½Ķà½Ħ": 1915,
      "Ġ1997": 1916,
      "à¾Ĵà¾±à½º": 1917,
      "à½Ĥà½ıà½¢": 1918,
      "Ġ2500": 1919,
      "Ġ1998": 1920,
      "Ġà½ĸà½ħà½ĳ": 1921,
      "à½ĺà½ĳà½Ħ": 1922,
      "es": 1923,
      "à½łà½ģà½¢": 1924,
      "Ġà½£à½Ħà½¦": 1925,
      "Ġà½ĺà½ī": 1926,
      "2011": 1927,
      "à½´à¼¼": 1928,
      "Ġà½Ļà½ĵ": 1929,
      "Ġ2022": 1930,
      "ĠH": 1931,
      "à½Ĥà½Ģ": 1932,
      "et": 1933,
      "Ġà½īà½¢": 1934,
      "Ġ79": 1935,
      "Ġà½łà½ĩà½ł": 1936,
      "Ġà½ĺà½Ĩà½ĵ": 1937,
      "Ġ1988": 1938,
      "66890": 1939,
      "Ġ139972": 1940,
      "Ġ13997266890": 1941,
      "71": 1942,
      "Ġâĳ¤": 1943,
      "ĠN": 1944,
      "PP": 1945,
      "à½Ľà½ĺ": 1946,
      "à¼¢à¼łà¼¡à¼§": 1947,
      "ic": 1948,
      "à¾ķà½²": 1949,
      "Ġ2021": 1950,
      "Ġ3500": 1951,
      "à½ıà½¢": 1952,
      "Ġ1999": 1953,
      "à½Ĳà½Ĥà½¦": 1954,
      "à¾²à½ºà¼į": 1955,
      "Ġ1370": 1956,
      "Ġ94": 1957,
      "à½Ĥà½ħà½£": 1958,
      "à¾Ļà¼ĭ": 1959,
      "à¼¢à¼¥": 1960,
      "Ġ1990": 1961,
      "à¾ª": 1962,
      "Ġà½¦à½¢": 1963,
      "Ġ1982": 1964,
      "ia": 1965,
      "Ġà½ŀà½¢": 1966,
      "Ġà½ıà½ł": 1967,
      "Ġà½ĸà½ŀà½Ĥ": 1968,
      "à½§à½ĸ": 1969,
      "Ġ1980": 1970,
      "ng": 1971,
      "Ġà½Ĩà½ĺ": 1972,
      "ãĢģãĢģ": 1973,
      "Ġà½¢à½£": 1974,
      "à½Ĥà½ħà½ĳ": 1975,
      "Ġà½łà½ļà½ĺà½¦": 1976,
      "____": 1977,
      "9734": 1978,
      "à¾²à½±à½²à¼ĭ": 1979,
      "à½ĳà½ĸà½ĸ": 1980,
      "Ġ170": 1981,
      "ï¹Ļ": 1982,
      "Ġ13709734": 1983,
      "Ġ13709734333": 1984,
      "à½ĺà½İ": 1985,
      "à½ĸà½ŀà½¢": 1986,
      "Ġ1993": 1987,
      "à½§à½ĳ": 1988,
      "à½łà½Ĳà½ĺ": 1989,
      "à¼¢à¼©": 1990,
      "âģµÂ³": 1991,
      "Ġà½¤à½ĵ": 1992,
      "ĠâĢ¦âĢ¦âĢĿ": 1993,
      "79": 1994,
      "Ġ350": 1995,
      "âĢľâĢĿ": 1996,
      "Ġ1800": 1997,
      "à¾¡à¼į": 1998,
      "à¾¤à¾±à½´": 1999,
      "ra": 2000,
      "Ġ1996": 2001,
      "à¾¡à½²à¼ĭ": 2002,
      "2008": 2003,
      "Ġ1978": 2004,
      "Ġ10000": 2005,
      "ht": 2006,
      "of": 2007,
      "à½¦à½łà½Ħ": 2008,
      ".ãĢĬ": 2009,
      "à½¤à½Ħà½¦": 2010,
      "197": 2011,
      "do": 2012,
      "Ġà¼¡à¼ł": 2013,
      "à½Ĥà½Ĩ": 2014,
      "Ġà½Ĥà½ĵà½Ħ": 2015,
      "][": 2016,
      "à¾±à½²à¼ĭà¼ĭ": 2017,
      "ĠãĢī": 2018,
      "Ġ91": 2019,
      "Ġ1983": 2020,
      "09": 2021,
      "375": 2022,
      "à¾µ": 2023,
      "sa": 2024,
      "à¾¡à½´à¼į": 2025,
      "Ġà½Ĥà½ĳà½ĺ": 2026,
      "Ġ1992": 2027,
      "à¼¢à¼łà¼¡à¼¦": 2028,
      "te": 2029,
      "à¾ĥà¼ĭ": 2030,
      "Ġà½£à½ĸ": 2031,
      "DP": 2032,
      "Ġà¼¢à¼ł": 2033,
      "Ġà¼¡à¼©à¼¨": 2034,
      "Â¹": 2035,
      "à½łà½ļà½Ĥ": 2036,
      "Ġâĳ¥": 2037,
      "Ġà½ĺà½ģà½£": 2038,
      "à¼ĭ\"": 2039,
      "Ġà½łà½ĸà½Ħà½¦": 2040,
      "Ġà¼¨": 2041,
      "à½²à¼¼": 2042,
      "Ġ900": 2043,
      "à¾²à¾Ģà¼ĭ": 2044,
      "Ġà½īà½Ħ": 2045,
      "Ġ2025": 2046,
      "Ġ105": 2047,
      "06": 2048,
      "à½ıà½¦": 2049,
      "Ġ1989": 2050,
      "Ġs": 2051,
      "à½ķà½ĸà½¦": 2052,
      "Ġ220": 2053,
      "Ġ1981": 2054,
      "2006": 2055,
      "Ġà½ĺà½ĩà½£": 2056,
      "ĠF": 2057,
      "à½ĳà½Ķà½Ĥà½¦": 2058,
      "Ġà½ģà½¦": 2059,
      "à½ĺà½ĵà½ĸà½¦": 2060,
      "à¼¢à¼¤": 2061,
      "Ġ1991": 2062,
      "Ġ1959": 2063,
      "à½¼à½¼à¼ĭ": 2064,
      "à¾²à¾Ģ": 2065,
      "à¾Ĵà¾±à½ºà¼ĭ": 2066,
      "Ġà½ļà½ĸ": 2067,
      "ang": 2068,
      "à½±à½´à½¾à¼ĭ": 2069,
      "Ġà½Ķà½¦": 2070,
      "à½¨à½Ĥ": 2071,
      "à½ĸà½¤à½Ħ": 2072,
      "à½ĸà½Ĥà½ĳ": 2073,
      "à¾Ĳà¾±à¼į": 2074,
      "Ġà½ĸà½ħà½¢": 2075,
      "Ġ1984": 2076,
      "2009": 2077,
      "is": 2078,
      "à½łà½ĸà½£": 2079,
      "Ġ0971": 2080,
      "100": 2081,
      "îĢ": 2082,
      "à¾Ĵà½ºà¼ĭ": 2083,
      "à¾¨à¾²à½¼": 2084,
      "à½ºà½º": 2085,
      "Ġ2035": 2086,
      "Ġ1100": 2087,
      "ãĢĬãĢĭ": 2088,
      "al": 2089,
      "Ġâĳ¦": 2090,
      "Ġâĳ§": 2091,
      "à½²à¼ĭà¼¼": 2092,
      "ro": 2093,
      "Ġ250": 2094,
      "à¾ľà½²": 2095,
      "Ġà¼¡à¼©à¼©": 2096,
      "Ġà½ĺà½Ħà½¢": 2097,
      "Ġà½Ŀà½ĵ": 2098,
      "Ġà¼½\"": 2099,
      "à½¢à½ĳ": 2100,
      "à½łà½Ľà½¢": 2101,
      "à¼¢à¼¦": 2102,
      "us": 2103,
      "Ġ108": 2104,
      "à½ĸà½ĳà½¢": 2105,
      "à½Ĥà½¡à½ĺ": 2106,
      "à¼¢à¼£": 2107,
      "à¾Ńà½¼à¼ĭ": 2108,
      "à¼¢à¼§": 2109,
      "Ġà½łà½Ĩà½£": 2110,
      "à¼µà¼ĭ": 2111,
      "à½ĸà½ıà½ĸà½¦": 2112,
      "à¾Ĵà¾±à½´à¼İ": 2113,
      "à½łà½Ĩà½ł": 2114,
      "Ġ109": 2115,
      "ch": 2116,
      "973": 2117,
      "à½Ĺà½Ħ": 2118,
      "à¾ªà¼ĭ": 2119,
      "à½ĸà½Ľ": 2120,
      "Ġ\"\"\"\"": 2121,
      "Ġ230": 2122,
      "Äģ": 2123,
      "à½Ĥà½ıà½Ĥ": 2124,
      "à½łà½ķà½Ĥ": 2125,
      "ĠãĢĬãĢĭ": 2126,
      "Ġï¼Ĵ": 2127,
      "Ġà½Ķà½Ĥà½¦": 2128,
      "el": 2129,
      "à½ķà½ĳ": 2130,
      "Ġà½ļà½ĸà½¦": 2131,
      "----": 2132,
      "Ġà½ĸà½ıà½ĸ": 2133,
      "Ġà½£à½¢": 2134,
      "ian": 2135,
      "à½½": 2136,
      "126": 2137,
      "ĠîĢ": 2138,
      "à¾¦à½ºà¼ĭ": 2139,
      "th": 2140,
      "ya": 2141,
      "à½´à¼ĭà¼ĭ": 2142,
      "ul": 2143,
      "à½Ĥà½¤à½¢": 2144,
      "ĠGDP": 2145,
      "Â¹Â³": 2146,
      "Ġà¼©": 2147,
      "à¼ĭà¼Ķ": 2148,
      "à½ĸà½¤à½Ħà½¦": 2149,
      "à½²à½²": 2150,
      "à½¼à¼½": 2151,
      "Ġà½¢à½Ĥà½¦": 2152,
      "à¾¥à½¼": 2153,
      "Ġà½ĳà½Ĥà½Ĥ": 2154,
      "Ġ128": 2155,
      "à¼ĭà¼ĭà¼ĭ": 2156,
      "Ġïį": 2157,
      "2007": 2158,
      "à½²à¼Ķ": 2159,
      "Ġà½łà½ĸà½Ĥ": 2160,
      "Ġâĳ©": 2161,
      "à½§à½£": 2162,
      "à¼¢à¼łà¼¡à¼¤": 2163,
      "qq": 2164,
      "à½ĸà½ĳà½ĺ": 2165,
      "à½Ĩà½£": 2166,
      "Ġà½Ĩà½ĵ": 2167,
      "Ġ115": 2168,
      "à¼¥à¼ł": 2169,
      "2005": 2170,
      "ĠAPP": 2171,
      "Ġ1979": 2172,
      "Ġb": 2173,
      "à½Ĥà½ķ": 2174,
      "Ġà½łà½ĳà½ĵ": 2175,
      "à¼£à¼£": 2176,
      "Ġâĳ¨": 2177,
      "à¼¦à¼ł": 2178,
      "à½łà½Ĥà½ĸ": 2179,
      "à¾¨à¾²à½ºà¼ĭ": 2180,
      "Ġà½ĸà½ĺ": 2181,
      "tp": 2182,
      "ĠR": 2183,
      "Ġ102": 2184,
      "Ġ103": 2185,
      "ĠQ": 2186,
      "ï¼īãĢĬ": 2187,
      "163": 2188,
      "ï¼ĳï¼": 2189,
      "jj": 2190,
      "1696": 2191,
      "http": 2192,
      "Ġnjj": 2193,
      "169682": 2194,
      "xi": 2195,
      "à½łà½Ľà½Ĥ": 2196,
      "Ġà½ģà½ĸ": 2197,
      "and": 2198,
      "à½Ĥà½Ĳ": 2199,
      "à¼¢à¼łà¼¡à¼¥": 2200,
      "à¼Ī": 2201,
      "ĠãĢĶ": 2202,
      "Ġ114": 2203,
      "ĠÂ»Â«": 2204,
      "Ġà½ģà½ł": 2205,
      "âĳ¾": 2206,
      "ĠãĢģ": 2207,
      "ol": 2208,
      "à½´à¼į\"": 2209,
      "Ġï¼ĳï¼": 2210,
      "Ġ123": 2211,
      "âĳ¿": 2212,
      "à¼§à¼ł": 2213,
      "Ġpt": 2214,
      "ib": 2215,
      "à¾«à½º": 2216,
      "Ġ1700": 2217,
      "à¾¡à½¼à¼į": 2218,
      "ĠãĢĬâĢľ": 2219,
      "Ġà½¤à½ĺ": 2220,
      "à¾Ķà¼İ": 2221,
      "Ġ104": 2222,
      "Ġ'": 2223,
      "à½Ģà½łà½Ħ": 2224,
      "à½ĸà½Ļà½Ĥ": 2225,
      "Ġ101": 2226,
      "à¼¢à¼¡": 2227,
      "Ġ1320": 2228,
      "Ġ280": 2229,
      "à¾¦à½¼à¼ĭ": 2230,
      "à¾ķà½²à¼į": 2231,
      "Ġà½łà½ķà½Ħ": 2232,
      "Ġ1400": 2233,
      "à½łà½ĩà½Ĥ": 2234,
      "à½ĸà½ĳà½£": 2235,
      "ï¼Ĵ": 2236,
      "Ġà½ĳà½ĸà½£": 2237,
      "Ġ1600": 2238,
      "2000": 2239,
      "Ġ125": 2240,
      "à¼¢à¼¢": 2241,
      "à¾ļà½²à¼ĭ": 2242,
      "it": 2243,
      "Ġà½ĳà½ĸà½ł": 2244,
      "Ġà½Ĥà½¡à½¢": 2245,
      "Ġà½ĵà½Ħà½¦": 2246,
      "Ġï¼Į": 2247,
      "Ġ450": 2248,
      "Ġ317": 2249,
      "ma": 2250,
      "ws": 2251,
      "à½¨à½ĸ": 2252,
      "ĠãĢĭ[": 2253,
      "Ġà½Ĥà½¦à½ĸ": 2254,
      "Ġ---": 2255,
      "Ġà½¨à½ĺ": 2256,
      "à½Ĩà½łà½ĺ": 2257,
      "ĠO": 2258,
      "à½´à¼ĭà¼¼": 2259,
      "Ġà½Ĥà½¦à½ł": 2260,
      "1998": 2261,
      "Ġà¼¡à¼¢": 2262,
      "Ġâ": 2263,
      "à½¼à½¼": 2264,
      "à½ĸà½Ļà½Ĥà½¦": 2265,
      "à½ĳà½Ħà½¢": 2266,
      "Ġ360": 2267,
      "Ġ)\"": 2268,
      "Ġ107": 2269,
      "sai": 2270,
      "ut": 2271,
      "ĠV": 2272,
      "Ġà½īà½ĺ": 2273,
      "à½ķà½Ĭ": 2274,
      "97377": 2275,
      "ur": 2276,
      "à¾Ĺà½²à¼ĭ": 2277,
      "à½ĸà½ĳà½¦": 2278,
      "ĠâĢľâĢĺ": 2279,
      "Ġ106": 2280,
      "Ġ116": 2281,
      "Ġnian": 2282,
      "Ġ132097377": 2283,
      "Ġniansai": 2284,
      "Ġ13209737776": 2285,
      "Ìĥ": 2286,
      "à½ģà½łà½Ħ": 2287,
      "Ġà½Ķà½Ħ": 2288,
      "Ġ117": 2289,
      "Ê°": 2290,
      "Ġ%": 2291,
      "Ġi": 2292,
      "à½²à¼½": 2293,
      "Ġà½¦à½ĳ": 2294,
      "Ġà½Ĥà½ĸ": 2295,
      "indo": 2296,
      "ĠU": 2297,
      "âĴĢ": 2298,
      "à¾¡à¾²": 2299,
      "à¾¦à½º": 2300,
      "Ġà½ķà½ĸ": 2301,
      "Ġà½Ĩà½łà½Ħ": 2302,
      "Ġï¼Ĥ": 2303,
      "Ġ3600": 2304,
      "indows": 2305,
      "à½±à½´à¼ĭ": 2306,
      "Ġ127": 2307,
      "Ġà½ĺà½Ľà½Ħà½¦": 2308,
      "à½ĸà½ħà½£": 2309,
      "à½ĸà½ŀà½ł": 2310,
      "Ġ129": 2311,
      "Ġ1976": 2312,
      "à½¾à¼į": 2313,
      "://": 2314,
      "Ãł": 2315,
      "ĠãĢĪ": 2316,
      "à½Ĭà½ł": 2317,
      "2004": 2318,
      "ĠX": 2319,
      "Ġà½¢à½ĸà½¦": 2320,
      "ĠîĢĥ": 2321,
      "à¾Łà¼İ": 2322,
      "à½łà½Ĩà½Ĥ": 2323,
      "Ġ9000": 2324,
      "Ġ1949": 2325,
      "www": 2326,
      "à¾·à½±à¼ĭ": 2327,
      "one": 2328,
      "il": 2329,
      "Ġof": 2330,
      "à¾Ńà½¼": 2331,
      "Ġà½ĺà½ļà½¢": 2332,
      "Ġà½ĸà½Ģà½¦": 2333,
      "Ġ240": 2334,
      "Ġ1002": 2335,
      "à½ıà½ĺ": 2336,
      "Ġ330": 2337,
      "Ġ118": 2338,
      "ï¼½.": 2339,
      "ĠQQ": 2340,
      "Ġ2800": 2341,
      "à¼¤à¼ł": 2342,
      "Ġ4300": 2343,
      "à½ĳà½Ħà½ĵ": 2344,
      "à½łà½Ĳà½ĺà½¦": 2345,
      "Ġà½ĺà½Ħà½Ĥ": 2346,
      "Ġ112": 2347,
      "2002": 2348,
      "à½ļà½¦": 2349,
      "à¼¨à¼ł": 2350,
      "à½¡à½ĺ": 2351,
      "Ġï¼½": 2352,
      "202": 2353,
      "Ġ1950": 2354,
      "shi": 2355,
      "ĠJ": 2356,
      "Ġ119": 2357,
      "2001": 2358,
      "Ph": 2359,
      "pp": 2360,
      "à¾±à½²à½²à¼ĭ": 2361,
      "ĠâĢĭ": 2362,
      "Ġ4200": 2363,
      "un": 2364,
      "ĠZ": 2365,
      "Ġà½ĸà½¤à½ĺà½¦": 2366,
      "à½©": 2367,
      "à½łà½ģà½£": 2368,
      "Ġà½Ĥà½ĺ": 2369,
      "2003": 2370,
      "à½łà½Ĩà½ĺà½¦": 2371,
      "Ġà½Ķà½ĵ": 2372,
      "Ġ824": 2373,
      "Ġ135": 2374,
      "Ġ260": 2375,
      "1289": 2376,
      "à¼·à½¼à¼ĭ": 2377,
      "Ġâħ": 2378,
      "Ã¬": 2379,
      "Ġà½ĳà½Ķà½Ĥ": 2380,
      "Ġà½łà½ļà½¢": 2381,
      "Ġ210": 2382,
      "Ġà¼¡à¼¤": 2383,
      "à½¢à½Ģ": 2384,
      "à½ĳà½Ħà½Ĥà½¦": 2385,
      "à½Ĥà½ŀà½Ħ": 2386,
      "Ġà½Ĩà½ĸà½¦": 2387,
      "âĴģ": 2388,
      "ãĢķ": 2389,
      "à¼¢à¼łà¼¡à¼©": 2390,
      "Ġïĳ": 2391,
      "oy": 2392,
      "à½ĸà½¤à½¢": 2393,
      "Ġà½łà½ĩà½£": 2394,
      "....": 2395,
      "à¼łà¼łà¼ł": 2396,
      "Ġà¼¢à¼łà¼¡à¼¤": 2397,
      "Ġla": 2398,
      "Ġà½¡à½£": 2399,
      "Ġ1958": 2400,
      "Ġ2300": 2401,
      "9060": 2402,
      "400": 2403,
      "jia": 2404,
      "um": 2405,
      "à¼¡à¼©à¼§": 2406,
      "Ġïķ": 2407,
      "Ġhttp": 2408,
      "à½ĳà½ł": 2409,
      "ï¼Īï¼ī": 2410,
      "Ġà¼¡à¼£": 2411,
      "Phone": 2412,
      "à½Ĥà½¢à½Ħ": 2413,
      "à¾Ķà½´à¼ĭ": 2414,
      "Ġà½¡à½ł": 2415,
      "Ġà½ļà½¢": 2416,
      "Ġ1975": 2417,
      "Ġ270": 2418,
      "Ġ219": 2419,
      "à¼£à¼¥": 2420,
      "1996": 2421,
      "Ġ1951": 2422,
      "zhaxi": 2423,
      "jiazhaxi": 2424,
      "am": 2425,
      "re": 2426,
      "à½¤à½ĸ": 2427,
      "3293": 2428,
      "ï¼ĮãĢĤ": 2429,
      "ĠCT": 2430,
      "Ġà¼¡à¼¦": 2431,
      "Â·Â·": 2432,
      "à½Ģà½ĺ": 2433,
      "Ġà½Ħà½ĺ": 2434,
      "Ġ1965": 2435,
      "à¾©à¾Ńà¼į": 2436,
      "ĠãĢĲ": 2437,
      "à¾Ĳà¾±à½´à¼ĭ": 2438,
      "Ġ1954": 2439,
      "Ġà¼¡à¼§": 2440,
      "Ġà½ĸà½¤à½¦": 2441,
      "âĢĻ": 2442,
      "Ġ156": 2443,
      "Ġ15202": 2444,
      "1993": 2445,
      "581289": 2446,
      "Ġboy": 2447,
      "utb": 2448,
      "Ġ15202581289": 2449,
      "Ġboyutb": 2450,
      "pe": 2451,
      "à½ĩà½ĵ": 2452,
      "ï¼ĺ": 2453,
      "Ġ138": 2454,
      "âĴĤ": 2455,
      "1369": 2456,
      "Ġ380": 2457,
      "Ġ8241369": 2458,
      "Ġ824136958": 2459,
      "ri": 2460,
      "à¾±à½´à¼į": 2461,
      "à½Ļà½¢": 2462,
      "ĠâĢĤ": 2463,
      "Ġà½Ĥà½ĵà½Ĥ": 2464,
      "Ġà½ĺà½ĳà½Ħ": 2465,
      "ï¼ķ": 2466,
      "1995": 2467,
      "ï¼Ĳï¼Ĳ": 2468,
      "Ġà¼Ħ": 2469,
      "Ġ216": 2470,
      "à½łà½¦": 2471,
      "Ġ122": 2472,
      "Ġ152": 2473,
      "as": 2474,
      "à¾Ĳà¾±à½ºà¼į": 2475,
      "Ġà½Łà½Ĥ": 2476,
      "Ġà½¤à½ł": 2477,
      "âĴĥ": 2478,
      "tion": 2479,
      "hoo": 2480,
      "à½Ĥà½ļ": 2481,
      "à¾¨à¼į": 2482,
      "ï¼ĵ": 2483,
      "à½¦à½łà½ĺ": 2484,
      "à¼£à¼¡": 2485,
      "à¼¥à¼¨": 2486,
      "ing": 2487,
      "Ġsul": 2488,
      "Ġt": 2489,
      "Ġà¼Ī": 2490,
      "à½¢à½ı": 2491,
      "à½±à½º": 2492,
      "Ġ132": 2493,
      "PE": 2494,
      "à½Ĥà½łà½ĳ": 2495,
      "à½¼à¼Ķ": 2496,
      "à½Ģà½Ĥ": 2497,
      "à½±à½¿": 2498,
      "Ġ190": 2499,
      "Ġ145": 2500,
      "âĢ¦âĢ¦": 2501,
      "Ġ81000": 2502,
      "tashi": 2503,
      "angtashi": 2504,
      "yahoo": 2505,
      "Ġsulangtashi": 2506,
      "à½ĸà½Ļà½ĳ": 2507,
      "Ġ2600": 2508,
      "Ġ2700": 2509,
      "107": 2510,
      "ĠiPhone": 2511,
      "à¾²à½±à½²": 2512,
      "à¾±à½ºà¼İ": 2513,
      "Ġà½ķà½ĺ": 2514,
      "à¼£à¼¢": 2515,
      "1994": 2516,
      "Ġ2400": 2517,
      "à½łà½Ľà½ł": 2518,
      "Ġ320": 2519,
      "1999": 2520,
      "Ġà½Ĥà½¤à½Ĥà½¦": 2521,
      "Ġïĵ": 2522,
      "Ġ810008": 2523,
      "ï¼Ļ": 2524,
      "Ġï¼ĵ": 2525,
      "Ġ650": 2526,
      "Ġà½łà½ĺ": 2527,
      "---": 2528,
      "à¼¡à¼łà¼ł": 2529,
      "Ġà¼¡à¼¨": 2530,
      "Ġà½Ľà½ĺ": 2531,
      "op": 2532,
      "Ġ{": 2533,
      "à¾Ļà½±à¼ĭ": 2534,
      "Ġà½Ĥà½¡à½ł": 2535,
      "Ġà½§à½ĺ": 2536,
      "Ġà½łà½ķà½ĵ": 2537,
      "Ġ124": 2538,
      "Ġà½ĩà½Ĥ": 2539,
      "Ġà½ĸà½ŀà½ĳ": 2540,
      "1988": 2541,
      "à¼¢à¼łà¼¢à¼ł": 2542,
      "ï¹ª": 2543,
      "go": 2544,
      "Ġ213": 2545,
      "Ġâĳ¾": 2546,
      "à¾¨à¾²à½²": 2547,
      "ãĢĪ": 2548,
      "à½ĺà½ĳà½¢": 2549,
      "Ġï¹Ļï¹ļ": 2550,
      "à¾²à½²à¼İ": 2551,
      "Ġà½¤à½Ĥ": 2552,
      "Ġ113": 2553,
      "à¼¦à¼¥": 2554,
      "ĠïĮ": 2555,
      "ĠâĴģ": 2556,
      "à½¼à¼ĭà¼ĭ": 2557,
      "Ġ420": 2558,
      "à¼¢à¼łà¼¡à¼£": 2559,
      "Ġ3300": 2560,
      "Ġ6500": 2561,
      "ers": 2562,
      "à½ĵà½£": 2563,
      "à¾³à¼İ": 2564,
      "à¾¨à¾²à¼į": 2565,
      "à¾Ĺà½ºà¼İ": 2566,
      "Ġà½Ĩà½¦": 2567,
      "Ġ158": 2568,
      "1986": 2569,
      "123": 2570,
      "ĠWindows": 2571,
      "946": 2572,
      "de": 2573,
      "à½ºà¼ĭà¼ĭ": 2574,
      "Ġ3200": 2575,
      "Ġ133": 2576,
      "Ġ2100": 2577,
      "ĠâĴĢ": 2578,
      "919": 2579,
      "à¾·à½ºà¼į": 2580,
      "ĠâĢľï¼Į": 2581,
      "Ġï¼į": 2582,
      "Ġ175": 2583,
      "1997": 2584,
      "1990": 2585,
      "à½Ĳà½¦": 2586,
      "Ġà½¢à½ĺ": 2587,
      "ĠãĢķ": 2588,
      "à½±à½¼": 2589,
      "Ġ550": 2590,
      "Ġ172": 2591,
      "Ġ147": 2592,
      "Ġà½Ĥà½ĳà½ĺà½¦": 2593,
      "à¼¤à¼©": 2594,
      "________": 2595,
      "à¾Ħ": 2596,
      "à½Ĥà½īà½Ĥà½¦": 2597,
      "Ġ111": 2598,
      "Ġ134": 2599,
      "Ġà½ĸà½Ļà½£": 2600,
      "ac": 2601,
      "à½Ĥà½¦à½ĳ": 2602,
      "à½Ĥà½ŀà½ł": 2603,
      "Ġ1960": 2604,
      "Ġ214": 2605,
      "AA": 2606,
      "ter": 2607,
      "à½´à¼Ķ": 2608,
      "à½ĺà½ĵà½£": 2609,
      "Ġ126": 2610,
      "Ġ131": 2611,
      "Ġ136": 2612,
      "1992": 2613,
      "âĴĦ": 2614,
      "Ġà¼¢à¼łà¼¡à¼¥": 2615,
      "Ġà½ĺà½ļà½£": 2616,
      "Ġ750": 2617,
      "Ġ143": 2618,
      "à¼£à¼§": 2619,
      "1984": 2620,
      "Ġâĳ¿": 2621,
      "Ġïĸ": 2622,
      "ãī": 2623,
      "Ġà½¦à½ĺ": 2624,
      "Ġà½ĸà½ĸà½¦": 2625,
      "à¼£à¼¤": 2626,
      "Ġ1956": 2627,
      "ni": 2628,
      "à½Łà½£": 2629,
      "à½łà½ļà½Ħà½¦": 2630,
      "ï¼Ĺ": 2631,
      "Ġà½łà½Ĥà½ĳ": 2632,
      "Ġ165": 2633,
      "à¼£à¼¦": 2634,
      "Ġ3700": 2635,
      "ge": 2636,
      "ot": 2637,
      "Ġà½ĺà½¦": 2638,
      "à½ħà½£": 2639,
      "Ġà½¦à½ĵ": 2640,
      "à½ĺà½Ĥà½£": 2641,
      "Ġ144": 2642,
      "ĠâĴĤ": 2643,
      "PEC": 2644,
      "614": 2645,
      "Ġà¼İ": 2646,
      "à½ļà½ĺ": 2647,
      "à¾¤à¾±à½²à¼į": 2648,
      "Ġ1900": 2649,
      "Ġ1961": 2650,
      "Ġ176": 2651,
      "1982": 2652,
      "Ġ225": 2653,
      "Ġ3800": 2654,
      "É¯": 2655,
      "à½ıà½£": 2656,
      "à¾£à½ºà¼į": 2657,
      "Ġ189": 2658,
      "at": 2659,
      "à½Ĥà½¨": 2660,
      "à½īà½¦": 2661,
      "Ġ5200": 2662,
      "âĢľâĢĺ": 2663,
      "Ġ137": 2664,
      "Ġ185": 2665,
      "Ġ167": 2666,
      "1985": 2667,
      "Ġ215": 2668,
      "à¼¥à¼¤": 2669,
      "à¼¥à¼¦": 2670,
      "tib": 2671,
      "ad": 2672,
      "Ä«": 2673,
      "ãģ": 2674,
      "à¼ĳ": 2675,
      "à½Ĥà½ĳà½Ĥ": 2676,
      "à½ĳà½¦": 2677,
      "à½ŀà½ĳ": 2678,
      "à½ĸà½Ģà½ĵ": 2679,
      "à¾Ńà½²à¼ĭ": 2680,
      "Ġ204": 2681,
      "Ġ121": 2682,
      "Ġ168": 2683,
      "Ġ2200": 2684,
      "à¼·à¼į": 2685,
      "Ġà½£à½łà½Ħ": 2686,
      "Ġ1962": 2687,
      "Ġ162": 2688,
      "Ġ148": 2689,
      "âĢĿâĢľ": 2690,
      "à¼¥à¼¥": 2691,
      "à¼©à¼ł": 2692,
      "à½½à¼ĭ": 2693,
      "Ġà½ģà½£": 2694,
      "ĠãĢĤ": 2695,
      "à½Ŀà½¦": 2696,
      "Ġï¼Ķ": 2697,
      "Ġ15000": 2698,
      "à½Ĭà½¦": 2699,
      "177": 2700,
      "Ġ1972": 2701,
      "wa": 2702,
      "à¾·à¼İ": 2703,
      "à¾¤à¾²à½¼à¼į": 2704,
      "à¾ķà½ºà¼į": 2705,
      "Ġ430": 2706,
      "à½§à½łà½¢": 2707,
      "à¼½à¼¼": 2708,
      "à¼¥à¼©": 2709,
      "à¼¦à¼¨": 2710,
      "Ġà¼¡à¼¡": 2711,
      "lajiazhaxi": 2712,
      "614333": 2713,
      "li": 2714,
      "Ġc": 2715,
      "à¼ĭà½²": 2716,
      "à¾´": 2717,
      "Ġà½ģà½Ħà½¦": 2718,
      "à¾Ģà¼į": 2719,
      "Ġà¼¡à¼¥": 2720,
      "ed": 2721,
      "om": 2722,
      "Ã¡": 2723,
      "Ġà½Ĥà½ıà½Ħ": 2724,
      "à½ĵà½Ķ": 2725,
      "à½Ĥà½īà½£": 2726,
      "à½ĸà½Łà½ĳ": 2727,
      "Ġà½Ĥà½ĳà½Ħ": 2728,
      "Ġà½ĳà½ĸà½ĵ": 2729,
      "ï¼Ĳï¼ĳï¼": 2730,
      "É¤": 2731,
      "à½Łà½¢": 2732,
      "à¾Ĳà½´à¼İ": 2733,
      "Ġà½Łà½Ħ": 2734,
      "Ġ370": 2735,
      "Ġ141": 2736,
      "Ġï¼ķ": 2737,
      "Ġà½ĸà½¦à½ĳ": 2738,
      "Ġ169": 2739,
      "5888": 2740,
      "Ġ340": 2741,
      "ĠâĴĥ": 2742,
      "ĠTib": 2743,
      "gle": 2744,
      "nd": 2745,
      "Éķ": 2746,
      "à¾Ĵà½²": 2747,
      "Ġà½ĳà½ĸà½¢": 2748,
      "ĠâĢĵ": 2749,
      "à¾¨à¾²à½²à¼ĭ": 2750,
      "ĠãĢĬãĢĪ": 2751,
      "ï¼Ķ": 2752,
      "à¾Ĵà¾²à½ºà¼ĭ": 2753,
      "Ġà½Ĥà½¦à½¦": 2754,
      "à¼£à¼©": 2755,
      "1980": 2756,
      "1987": 2757,
      "Ġ1955": 2758,
      "à½±à½´à¾ĥà¼ĭ": 2759,
      "////": 2760,
      "1002": 2761,
      "Ġà¼Ķ": 2762,
      "à½Ĥà½£à½¦": 2763,
      "Ġà½Ĥà½ł": 2764,
      "Ġ1977": 2765,
      "Ġ142": 2766,
      "Ġ()âĢĶâĢĶ": 2767,
      "ãĢĬãĢĭ)": 2768,
      "588848": 2769,
      "NA": 2770,
      "OL": 2771,
      "ĠâĢĿï¹Ļ": 2772,
      "Ġà½łà½ĳà½¢": 2773,
      "Ġ1964": 2774,
      "Ġ13107": 2775,
      "Ġà½ĳà½ĺà½ĵ": 2776,
      "1991": 2777,
      "ĠÂ»ï¼»": 2778,
      "âĴĨ": 2779,
      "Ġ1957": 2780,
      "Ġ13107588848": 2781,
      "id": 2782,
      "à½łà½Ľà½Ħà½¦": 2783,
      "Ġ435": 2784,
      "Ġ6329322": 2785,
      "Ġ157": 2786,
      "Ġ166": 2787,
      "Ġ253": 2788,
      "à¼¤à¼¢": 2789,
      "à½Ĭà½ĺ": 2790,
      "âĴħ": 2791,
      "oogle": 2792,
      "pa": 2793,
      "à¾¤à½¼à¼į": 2794,
      "à½Ĥà½ŀà½¢": 2795,
      "à¾¦à¾·à¼ĭ": 2796,
      "Ġ375": 2797,
      "Ġ12000": 2798,
      "Ġà½Ĥà½ĳà½Ĥà½¦": 2799,
      "à¼£à¼¨": 2800,
      "à¼¥à¼¡": 2801,
      "à¼¦à¼§": 2802,
      "âĴĩ": 2803,
      "à½Ĥà½ıà½Ĥà½¦": 2804,
      "Ġà½£à½ĳ": 2805,
      "à½łà½Ĳà½¦": 2806,
      "à½Ĥà½¤à½Ħ": 2807,
      "à½Ĥà½¤à½ł": 2808,
      "Ġ390": 2809,
      "Ġ460": 2810,
      "ĠâĴħ": 2811,
      "Ġà¼¢à¼łà¼¡à¼¦": 2812,
      "ote": 2813,
      "ï½": 2814,
      "Ġà½Į": 2815,
      "à¾¡à¾·à¼ĭ": 2816,
      "Ġ20000": 2817,
      "Ġà½Ĥà½ŀà½£": 2818,
      "à¼¤à¼¦": 2819,
      "Ġ1973": 2820,
      "ĠâĴĦ": 2821,
      "Ġà¼£à¼ł": 2822,
      "KM": 2823,
      "be": 2824,
      "os": 2825,
      "ud": 2826,
      "ÃŃ": 2827,
      "Ê¨": 2828,
      "Ġà½ĺà½ĳà½Ħà½¦": 2829,
      "à¾¥à½ºà¼į": 2830,
      "Ġà½ĸà½¦à½Ĥà½¦": 2831,
      "Ġ146": 2832,
      "à½ĳà½ĸà½łà½¦": 2833,
      "à½£à½ī": 2834,
      "à½ĸà½¦à½Ĥ": 2835,
      "à½ĸà½ħà½Ħ": 2836,
      "Ġà½¢à½ĺà½¦": 2837,
      "Ġà½īà½ł": 2838,
      "Ġà½¤à½ĳ": 2839,
      "Ġà½Ĥà½ħà½ĳ": 2840,
      "à¾Ĳà¾²à¾Ģà¼ĭ": 2841,
      "à¼¦à¼©": 2842,
      "Ġ365": 2843,
      "110": 2844,
      "à½Ĥà½ĺà½ļ": 2845,
      "à¾±à½²à¼ĭà¼¼": 2846,
      "Ġ153": 2847,
      "Ġ149": 2848,
      "à¼¤à¼§": 2849,
      "Ġà½ĸà½ıà½Ĥà½¦": 2850,
      "ord": 2851,
      "TV": 2852,
      "lo": 2853,
      "Çİ": 2854,
      "à¾Ńà½ºà¼ĭ": 2855,
      "à¾©à½²à¼İ": 2856,
      "Ġ660": 2857,
      "Ġ1969": 2858,
      "Ġ234": 2859,
      "à¼¤à¼¥": 2860,
      "Ġ315": 2861,
      "307": 2862,
      "Ġ1953": 2863,
      "BA": 2864,
      "Ġe": 2865,
      "à¾ŀ": 2866,
      "Ġà½Ĩà½ł": 2867,
      "ï¼ĸ": 2868,
      "à¾Ĵà¾²à¼İ": 2869,
      "Ġ\"\"[": 2870,
      "Re": 2871,
      "ba": 2872,
      "Ã¹": 2873,
      "ÊĲ": 2874,
      "Ġx": 2875,
      "à¾Ĵà¼į": 2876,
      "à¾·à¾±": 2877,
      "ĠãĢĭï¹Ļ": 2878,
      "Ġï¼ĸ": 2879,
      "Ġ187": 2880,
      "345": 2881,
      "Ġ1952": 2882,
      "158": 2883,
      "Ġw": 2884,
      "Ġ205": 2885,
      "Ġà½łà½ĳà½Ħ": 2886,
      "Ġ174": 2887,
      "Ġ251": 2888,
      "à¼©à¼©": 2889,
      "929": 2890,
      "Ġ437": 2891,
      "Ġ4600": 2892,
      "à¾µà¼ĭ": 2893,
      "17730921766": 2894,
      "]]": 2895,
      "ik": 2896,
      "à½Ĥà½łà½ĸ": 2897,
      "à½ĸà½¦à½¢": 2898,
      "à¾Ĳà½¼à¼į": 2899,
      "Ġà½ĸà½¦à½£": 2900,
      "Ġ192": 2901,
      "Ġ163": 2902,
      "1983": 2903,
      "Ġ227": 2904,
      "à¼¤à¼¤": 2905,
      "Ġà½ĸà½¤à½Ħ": 2906,
      "Ġà½Łà½ĳ": 2907,
      "à½Ĥà½ĳà½Ķ": 2908,
      "à½ºà¼Ķ": 2909,
      "à½¼à¼ĭà¼İ\"": 2910,
      "à¾±à½¼à¼į": 2911,
      "à¾Ķà½º": 2912,
      "Ġ540": 2913,
      "Ġ850": 2914,
      "Ġ186": 2915,
      "Ġà½ĸà½Ļà½¦": 2916,
      "1989": 2917,
      "ĠâĢ¦âĢ¦\"\"": 2918,
      "ak": 2919,
      "ce": 2920,
      "ok": 2921,
      "à½£à½ŀ": 2922,
      "à½ĸà½Ģà½ĳ": 2923,
      "Ġ1945": 2924,
      "Ġ151": 2925,
      "Ġ159": 2926,
      "à¼¥à¼§": 2927,
      "à¼©à¼§": 2928,
      "Ġ3100": 2929,
      "ĠïĲ": 2930,
      "Ġà¼½à¼¼": 2931,
      "()": 2932,
      "300": 2933,
      "RL": 2934,
      "ck": 2935,
      "à½Ĥà½łà½Ħ": 2936,
      "à¾Ĵà½´à¼į": 2937,
      "à½Ļà½ĳ": 2938,
      "ï¼į": 2939,
      "Ġ319": 2940,
      "Ġ1936": 2941,
      "Ġ179": 2942,
      "Ġ161": 2943,
      "à¼¤à¼¨": 2944,
      "à¼¦à¼£": 2945,
      "à¼¦à¼¤": 2946,
      "281": 2947,
      "Ġ1974": 2948,
      "à½±à½´à½¾à¼į": 2949,
      "Ġ......âĢĿ": 2950,
      "ity": 2951,
      "ĠCTRL": 2952,
      "BC": 2953,
      "ji": 2954,
      "Ã©": 2955,
      "Ġà¼ł": 2956,
      "à¾Ńà½º": 2957,
      "à½Ĥà½¡à½ĵ": 2958,
      "Ġà½ħà½ł": 2959,
      "Ġ1966": 2960,
      "Ġ182": 2961,
      "Ġà½ĸà½Ļà½ł": 2962,
      "Ġ246": 2963,
      "Ġ236": 2964,
      "Ġïİ": 2965,
      "à¼·à½²à¼ĭ": 2966,
      "cm": 2967,
      "ml": 2968,
      "à¼ĭà½¿": 2969,
      "à½Ĥà½łà½Ĥ": 2970,
      "à¾Łà½´à¼ĭ": 2971,
      "à¾²à½´à¼İ": 2972,
      "à¾Ĳà¾±à½ºà¼İ": 2973,
      "Ġà½Ģà½Ħ": 2974,
      "Ġï¼ĳ": 2975,
      "à½Ģà½łà½ĺ": 2976,
      "Ġ1970": 2977,
      "Ġ164": 2978,
      "1950": 2979,
      "ĠAPEC": 2980,
      "Ġ3400": 2981,
      "967": 2982,
      "Ġ4700": 2983,
      "à½±à½´à¾ĥ": 2984,
      "119": 2985,
      "214": 2986,
      "AR": 2987,
      "ir": 2988,
      "mm": 2989,
      "à¾¤à½ºà¼ĭ": 2990,
      "à¾Ńà½±à¼ĭ": 2991,
      "à½ĳà½Ģà½Ĥ": 2992,
      "Ġà½Ĳà½ĺ": 2993,
      "à¾¡à½ºà¼İ": 2994,
      "à¼½à¼ĭ": 2995,
      "Ġà½łà½Ľà½Ħà½¦": 2996,
      "Ġ310": 2997,
      "ãĢģ)": 2998,
      "à¼¢à¼łà¼¡à¼¢": 2999,
      "Ġ1971": 3000,
      "ĠâĴĨ": 3001,
      "710": 3002,
      "à½¦à½ĸ": 3003,
      "à¾Ĵà¾±à½´à½´": 3004,
      "Ġ1834": 3005,
      "à¼¥à¼£": 3006,
      "155": 3007,
      "ĠãĢĭ(ãĢĬãĢĭ)": 3008,
      "Ġ3900": 3009,
      "à¼ĭà¼ĭà¼ĭà¼ĭà¼ĭ": 3010,
      "à¼ĭà¼ĭà¼ĭà¼ĭà¼ĭà¼ĭ": 3011,
      "Ġa": 3012,
      "à½¼à¼Įà¼İ": 3013,
      "à½´à½¿": 3014,
      "Ġà½Ģà½Ĥ": 3015,
      "ĠâĢľãĢĬ": 3016,
      "Ġ207": 3017,
      "Ġ560": 3018,
      "Ġ1968": 3019,
      "1981": 3020,
      "Ġà½Ĥà½¤à½Ĥ": 3021,
      "Ġ5500": 3022,
      "Ġ4800": 3023,
      "ros": 3024,
      "gov": 3025,
      "gu": 3026,
      "Ġm": 3027,
      "à½Ĥà½§": 3028,
      "à½łà½ĸà½ĺ": 3029,
      "ï¼ĳ": 3030,
      "Ġ470": 3031,
      "Ġ63293": 3032,
      "Ġ1938": 3033,
      "Ġ154": 3034,
      "Ġ184": 3035,
      "à¼¤à¼¡": 3036,
      "à¼¦à¼¢": 3037,
      "à¾µà½²à¼ĭ": 3038,
      "tibet": 3039,
      "he": 3040,
      "à½¼\"": 3041,
      "à½´à¼½": 3042,
      "Ġ208": 3043,
      "à¾¥à½´à¼į": 3044,
      "Ġ480": 3045,
      "Ġ520": 3046,
      "Ġ181": 3047,
      "Ġ224": 3048,
      "Ġ290": 3049,
      "ĠApp": 3050,
      "à¼¢à¼łà¼łà¼ł": 3051,
      "1978": 3052,
      "329375": 3053,
      "Ġ6329376": 3054,
      "6329375": 3055,
      "ve": 3056,
      "Ġ}": 3057,
      "Ġà½Ĺà½Ħ": 3058,
      "à½Ĥà½Ĥà½¦": 3059,
      "à½Ĥà½¦à½Ĥ": 3060,
      "à¾¡à¾·à½ºà¼ĭ": 3061,
      "Ġà½Ĥà½ĳà½Ħà½¦": 3062,
      "Ġà½ģà½¢": 3063,
      "ĠâĢľ(": 3064,
      "Ġ206": 3065,
      "Ġ2050": 3066,
      "Ġ685": 3067,
      "Ġ)âĢĿ": 3068,
      "à¾©à½ºà¼İ": 3069,
      "Ġà½Ĥà½ŀà½Ħ": 3070,
      "à½Ĥà½łà½ĺ": 3071,
      "Ġ171": 3072,
      "Ġ256": 3073,
      "Ġ226": 3074,
      "Ġ235": 3075,
      "Ġà¼¢à¼łà¼¡à¼§": 3076,
      "Ġk": 3077,
      "Ġl": 3078,
      "Ġ00": 3079,
      "Ġà½Ĭ": 3080,
      "ĠâĢº": 3081,
      "Ġà½Łà½ĵ": 3082,
      "Ġ366": 3083,
      "Ġ410": 3084,
      "Ġ580": 3085,
      "Ġ)âĢľ": 3086,
      "Ġ196": 3087,
      "Ġ183": 3088,
      "Ġ267": 3089,
      "à¼§à¼§": 3090,
      "ĠïĴ": 3091,
      "à¾ľà¼ĭ": 3092,
      "ĠâĴĩ": 3093,
      "ess": 3094,
      "1979": 3095,
      ")\"": 3096,
      "zh": 3097,
      "Ã¨": 3098,
      "à½Ļà½ĸ": 3099,
      "à¾¤à¾²à½¼à¼İ": 3100,
      "Ġà½Łà½Ĥà½¦": 3101,
      "Ġ475": 3102,
      "Ġ217": 3103,
      "âĢ¢âĢ¢": 3104,
      "307929": 3105,
      "Ġ1834307929": 3106,
      "oh": 3107,
      "ts": 3108,
      "à½Ķà½Ĥ": 3109,
      "à½Ķà½Ģ": 3110,
      "Ġ203": 3111,
      "Ġà½§à½¢": 3112,
      "à¾¦à¾²à¼į": 3113,
      "Ġ301": 3114,
      "à½¾à¼İ": 3115,
      "Ġïı": 3116,
      "ĠïĹ": 3117,
      "Ġ30000": 3118,
      "ĠãĢĭï¼Īï¼ī": 3119,
      "Ġà¼¢à¼łà¼¡à¼£": 3120,
      "Ġà¼¢à¼łà¼łà¼©": 3121,
      "the": 3122,
      ")ãĢĬ": 3123,
      "188": 3124,
      "à½¼à¼¼": 3125,
      "à½§à½¦": 3126,
      "ãĢĶ": 3127,
      "Ġ212": 3128,
      "Ġ284": 3129,
      "Ġ312": 3130,
      "161": 3131,
      "Ġ7500": 3132,
      "ĠTV": 3133,
      "if": 3134,
      "Ã¸": 3135,
      "à½Ĥà½ĸà½¢": 3136,
      "à½łà½ĸà½Ĥà½¦": 3137,
      "ĠâĢľï¼Įï¼Į": 3138,
      "Ġà½ķà½Ħà½¦": 3139,
      "Ġ209": 3140,
      "Ġ(,": 3141,
      "Ġ1963": 3142,
      "Ġ178": 3143,
      "Ġ1729": 3144,
      "Ġà½Ĥà½ıà½ł": 3145,
      "Ġ248": 3146,
      "Ġ272": 3147,
      "à¾ļà½²": 3148,
      "Äģn": 3149,
      "AS": 3150,
      "ED": 3151,
      "OS": 3152,
      "ype": 3153,
      "Ãº": 3154,
      "à½łà½ģà½ĵ": 3155,
      "à½ĸà½Łà½Ħà½¦": 3156,
      "Ġ202": 3157,
      "Ġ(ãĢģ)": 3158,
      "Ġà½ĳà½Ĥà½¢": 3159,
      "Ġ)(": 3160,
      "2030": 3161,
      "Ġ252": 3162,
      "1959": 3163,
      "Ġ265": 3164,
      "à¼¤à¼£": 3165,
      "à¼©à¼¨": 3166,
      "à¼¢à¼łà¼¡à¼ł": 3167,
      "ĠII": 3168,
      "ard": 3169,
      "à¾±à¾Ģà¼į": 3170,
      "oft": 3171,
      "500": 3172,
      "MF": 3173,
      "og": 3174,
      "vers": 3175,
      "Â²": 3176,
      "Äĵ": 3177,
      "à¼ĭà¼Įà¼į": 3178,
      "à½Ĥà½Ĥà½¦à½¢": 3179,
      "à½¼à¾ĥà¼ĭ": 3180,
      "à½Ħà½łà½Ħ": 3181,
      "à¾±à½ºà½ºà¼ĭ": 3182,
      "à¾±à½´à¼İ": 3183,
      "à¾ķà¼ĭ": 3184,
      "Ġ424": 3185,
      "Ġ188": 3186,
      "Ġ405": 3187,
      "à¼¢à¼łà¼łà¼¦": 3188,
      "ĠGoogle": 3189,
      "DR": 3190,
      "fic": 3191,
      "ãĥ": 3192,
      "Ġand": 3193,
      "à½Ĥà½Ĥà½£": 3194,
      "à½ĳà½İ": 3195,
      "à½²à¼ĭà¼İ": 3196,
      "à½±à½¾à¼ĭ": 3197,
      "Ġ640": 3198,
      "Ġ1948": 3199,
      "Ġà½Ĥà½Ļà½Ĥà½¦": 3200,
      "Ġà½łà½ģà½¢": 3201,
      "Ġ278": 3202,
      "1287": 3203,
      "à¼¢à¼łà¼łà¼©": 3204,
      "295": 3205,
      "Ġà¼¢à¼łà¼¡à¼¨": 3206,
      "à¼ĭà¼ĭà¼ĭà¼ĭà¼ĭà¼ĭà¼ĭà¼ĭ": 3207,
      "ĠâĢĿ()": 3208,
      "à¼¡à¼©à¼©à¼ł": 3209,
      "etan": 3210,
      "icros": 3211,
      "Ġà¼Īà¼į": 3212,
      "icrosoft": 3213,
      "im": 3214,
      "va": 3215,
      "Ã³": 3216,
      "ÊĶ": 3217,
      "à¾¶": 3218,
      "à½Ĥà½£à½ĺ": 3219,
      "Ġà½ļà½Ĥ": 3220,
      "Ġà½ķà½ł": 3221,
      "Ġ325": 3222,
      "Ġ388": 3223,
      "Ġ458": 3224,
      "Ġ960": 3225,
      "Ġ173": 3226,
      "Ġà½łà½Ĳà½Ĥ": 3227,
      "Ġ5400": 3228,
      "Ġ77058328": 3229,
      "ĠïĮĮ": 3230,
      "ay": 3231,
      "à¾ł": 3232,
      "à½Ĥà½Ķ": 3233,
      "à½¼à¼ĭà¼½": 3234,
      "à½ĸà½ıà½Ĥ": 3235,
      "Ġ2024": 3236,
      "Ġà½ĳà½Ħà½Ħà½¦": 3237,
      "Ġà½¤à½Ĥà½¦": 3238,
      "Ġ191": 3239,
      "Ġ193": 3240,
      "Ġà½Ĥà½īà½Ĥà½¦": 3241,
      "ï¼īï¼Ī": 3242,
      "Ġ245": 3243,
      "Ġ221": 3244,
      "Ġ268": 3245,
      "à¼§à¼£": 3246,
      "à¼¦à¼¦": 3247,
      "Ġ337": 3248,
      "Ġ4400": 3249,
      "Ġà¼¢à¼łà¼łà¼¨": 3250,
      "dobe": 3251,
      "à¾Ħà¼ĭ": 3252,
      "ig": 3253,
      "ïĸ": 3254,
      "à¾Ľ": 3255,
      "à½Ĥà½Ĥà½ŀ": 3256,
      "à½łà½Ĥà½ĺ": 3257,
      "à¾·à½±à½²": 3258,
      "Ġ194": 3259,
      "Ġ302": 3260,
      "à¾Ĳà¾²à¾Ģ": 3261,
      "Ġ211": 3262,
      "Ġ239": 3263,
      "Ġ261": 3264,
      "Ġ262": 3265,
      "Ġ275": 3266,
      "à¼§à¼©": 3267,
      "à¼§à¼¨": 3268,
      "891": 3269,
      "ĠAR": 3270,
      "Ġ323": 3271,
      "Ġ5100": 3272,
      "ent": 3273,
      "Ê°a": 3274,
      "versity": 3275,
      "319": 3276,
      "600": 3277,
      "PT": 3278,
      "ÊĤ": 3279,
      "Ġãī": 3280,
      "à½Ĥà½ĳà½ĺà½Ħà½¦": 3281,
      "à¾Ĵà½±": 3282,
      "à½¤à½Ģ": 3283,
      "à¾Ĳà¾±à½¼à¼İ": 3284,
      "Ġ665": 3285,
      "à½ģà½łà½ĺ": 3286,
      "Ġ1027": 3287,
      "Ġà½ĩà½ł": 3288,
      "à¼£à¼łà¼ł": 3289,
      "Ġ218": 3290,
      "Ġ222": 3291,
      "Ġ228": 3292,
      "à¼¥à¼¢": 3293,
      "à¼©à¼¢": 3294,
      "à¼§à¼¦": 3295,
      "ĠDNA": 3296,
      "ĠWord": 3297,
      "oot": 3298,
      "ãĢģãĢģãĢģ": 3299,
      "Ġà¼¢à¼łà¼¡à¼¡": 3300,
      "1976": 3301,
      "Fi": 3302,
      "na": 3303,
      "Ġf": 3304,
      "à½¦à½ı": 3305,
      "à¾Łà½²à¼į": 3306,
      "Ġ332": 3307,
      "Ġà½ĵà½ł": 3308,
      "Ġ490": 3309,
      "Ġà½Ŀà½¢": 3310,
      "Ġà½Ĥà½ıà½¢": 3311,
      "à¼§à¼¤": 3312,
      "Ġ40000": 3313,
      "à¼¢à¼łà¼łà¼¤": 3314,
      "ĠIC": 3315,
      "âĢľâĢĿâĢľ": 3316,
      "html": 3317,
      "Ġï¼Ĵï¼Ĳï¼ĳï¼": 3318,
      "ï¼ĳï¼Ļ": 3319,
      "peop": 3320,
      "à¾·à¾±à½¿": 3321,
      "people": 3322,
      "ob": 3323,
      "à½ĭ": 3324,
      "à½łà½ĳà½ĺà½¦": 3325,
      "ĠâĢ¹": 3326,
      "Ġ814": 3327,
      "Ġ257": 3328,
      "Ġ232": 3329,
      "à¼¨à¼¡": 3330,
      "103": 3331,
      "à¼¡à¼łà¼łà¼ł": 3332,
      "ĠCh": 3333,
      "à¼¢à¼łà¼łà¼§": 3334,
      "Ġà¼¢à¼łà¼¡à¼ł": 3335,
      "......": 3336,
      "Ġ(ãĢģ)âĢĶâĢĶ": 3337,
      ")ãĢĭ": 3338,
      "150": 3339,
      "ka": 3340,
      "note": 3341,
      "ran": 3342,
      "Ġà¼Ħà¼ħà¼İ": 3343,
      "à½Ĥà½łà½ķ": 3344,
      "à¾±à¾°à¼ĭ": 3345,
      "à½ºà½¿": 3346,
      "à¾²à½±": 3347,
      "à½ģà½İ": 3348,
      "à¾¡à¼İ": 3349,
      "Ġà½ĳà½ĵ": 3350,
      "Ġà½Ģà½ĺ": 3351,
      "à½łà½Ĩà½Ĥà½¦": 3352,
      "Ġà½§à½ĸ": 3353,
      "Ġ628": 3354,
      "Ġ780": 3355,
      "Ġ1921": 3356,
      "Ġ11000": 3357,
      "à¼łà¼©": 3358,
      "Ġ13000": 3359,
      "Ġà½ĸà½ħà½Ĥ": 3360,
      "à¼¨à¼¥": 3361,
      "à¼§à¼¥": 3362,
      "Ġà¼¢à¼łà¼¡à¼¢": 3363,
      "ary": 3364,
      "ĠLED": 3365,
      "niversity": 3366,
      ",,": 3367,
      "se": 3368,
      "tÊĤ": 3369,
      "Ġj": 3370,
      "à½Ĥà½ĸà½¦": 3371,
      "à½łà½Ĥà½Ħ": 3372,
      "ĠâĢĦ": 3373,
      "à½ĩà½¢": 3374,
      "à½Ľà½ł": 3375,
      "ĠãĢĭï¼»": 3376,
      "Ġ376": 3377,
      "Ġï¼İ": 3378,
      "Ġï¼ĺ": 3379,
      "Ġ414": 3380,
      "Ġ440": 3381,
      "Ġ(ï¼ī": 3382,
      "à¾¤à¾±à½¼à¼ĭ": 3383,
      "Ġ680": 3384,
      "Ġ1942": 3385,
      "Ġà½Ĥà½īà½£": 3386,
      "Ġ242": 3387,
      "Ġ233": 3388,
      "ĠPPP": 3389,
      "ĠCD": 3390,
      "à¼¢à¼łà¼łà¼£": 3391,
      "120": 3392,
      "Tok": 3393,
      "ci": 3394,
      "foot": 3395,
      "od": 3396,
      "Ġ__": 3397,
      "à½Ĥà½Ĥà½Ħ": 3398,
      "à½²à¼ĭà¼½": 3399,
      "à½ŀà½¦": 3400,
      "à¾Ĺà¼ĭ": 3401,
      "Ġà½ĺà½ĵà½¢": 3402,
      "Ġà½Ĳà½Ĥà½¦": 3403,
      "Ġ328": 3404,
      "Ġ428": 3405,
      "Ġà½¤à½Ħà½¦": 3406,
      "Ġ731": 3407,
      "Ġ306": 3408,
      "Ġ313": 3409,
      "Ġ296": 3410,
      "à¾°à½´": 3411,
      "à¼·à½¼à¼į": 3412,
      "ĠâĢľï¼ĮâĢĿ": 3413,
      "oto": 3414,
      "Ref": 3415,
      "noteRef": 3416,
      "footnoteRef": 3417,
      "130": 3418,
      "117": 3419,
      "ow": 3420,
      "Ġd": 3421,
      "à½Ĥà½£à½Ĥ": 3422,
      "à½²à½¿": 3423,
      "à½ĵà½ŀ": 3424,
      "à½łà½Ľà½Ĥà½¦": 3425,
      "à½ĸà½ŀà½Ĥà½¦": 3426,
      "Ġà½ĺà½īà½ĵ": 3427,
      "Ġà½ķà½¦": 3428,
      "Ġà½łà½ĳà½Ĥ": 3429,
      "Ġ570": 3430,
      "Ġ620": 3431,
      "Ġ630": 3432,
      "Ġ1934": 3433,
      "Ġ1947": 3434,
      "Ġ1941": 3435,
      "Ġà½ĸà½Ģà½£": 3436,
      "Ġ305": 3437,
      "Ġ243": 3438,
      "Ġ285": 3439,
      "Ġ286": 3440,
      "à¼§à¼¢": 3441,
      "160": 3442,
      "ĠãĢĭ(ãĢĬ": 3443,
      "ĠIn": 3444,
      "ist": 3445,
      "ĠïķŃ": 3446,
      "fice": 3447,
      "Tib": 3448,
      "Ġwww": 3449,
      "à¼Ģ": 3450,
      "à½Ĥà½Ĥà½ŀà½ĵ": 3451,
      "à½ĸà½Ĥà½¦": 3452,
      "à½Ķà½ĳà½Ħ": 3453,
      "à¾Ĵà¾±à½´à¼į\"": 3454,
      "à¾¦à¾·à½¼à¼ĭ": 3455,
      "Ġ2023": 3456,
      "Ġ358": 3457,
      "Ġ1946": 3458,
      "Ġ1230": 3459,
      "Ġà½łà½ļà½Ħ": 3460,
      "Ġ237": 3461,
      "ĠÂ»(": 3462,
      "Ġ288": 3463,
      "Ġ266": 3464,
      "Ġ273": 3465,
      "à¼¦à¼¡": 3466,
      "Ġ01": 3467,
      "Ġ50000": 3468,
      "Ġà¼¢à¼©": 3469,
      "ins": 3470,
      "Ġ??": 3471,
      "Ġà¼¢à¼łà¼łà¼¤": 3472,
      "ãĢĤâĢĿ": 3473,
      "ĠïįŁ": 3474,
      "ikTok": 3475,
      "à¾·à½±à½²à½¿": 3476,
      "ER": 3477,
      "TC": 3478,
      "Éª": 3479,
      "à½ĸà½Ħà½¦": 3480,
      "à½´à¼İ\"": 3481,
      "à¾Ĵà½±à¼ĭ": 3482,
      "à¾¡à¾·à½´à¼ĭ": 3483,
      "à½ĳà½Ķà½¦": 3484,
      "à½Ŀà½ĺ": 3485,
      "Ġà½¨à½ĸ": 3486,
      "Ġ425": 3487,
      "Ġ525": 3488,
      "Ġ797": 3489,
      "Ġ254": 3490,
      "Ġ263": 3491,
      "à¼©à¼¤": 3492,
      "Ġ299": 3493,
      "ãĢģï¼Īï¼ī": 3494,
      "Ġï¹Ŀ": 3495,
      "Ġ391": 3496,
      "1977": 3497,
      "112": 3498,
      "AM": 3499,
      "pt": 3500,
      "à¼¹": 3501,
      "à½ĳà½ĸà½¦": 3502,
      "à½ĵà½ĸ": 3503,
      "à½ģà½Ĥà½¦": 3504,
      "Ġ344": 3505,
      "Ġ1927": 3506,
      "Ġ12345": 3507,
      "âĳµ": 3508,
      "Ġ304": 3509,
      "Ġ1650": 3510,
      "Ġ255": 3511,
      "1949": 3512,
      "Ġ229": 3513,
      "à¼§à¼¡": 3514,
      "à¾¨à¾²à¼İ": 3515,
      "ine": 3516,
      "Ġà½ĸà½¤à½£": 3517,
      "ĠLin": 3518,
      "Ġïķĳ": 3519,
      "à¼ĳà¼į": 3520,
      "à½±à½´à¾ĥà¼į": 3521,
      "qh": 3522,
      "Ġà½Ĥà½ıà½ĳ": 3523,
      "à½ĸà½Ĩà½ĳ": 3524,
      "à¾±à¾Ń": 3525,
      "à½łà½ĸà½ĸà½¦": 3526,
      "à½ĺà½ļà½Ĥ": 3527,
      "Ġà½ķà½Ħ": 3528,
      "ï¼Ł": 3529,
      "Ġ)ãĢĬ": 3530,
      "âĳ´": 3531,
      "Ġ1730": 3532,
      "Ġ309": 3533,
      "Ġ247": 3534,
      "à¼¢à¼łà¼¡à¼¡": 3535,
      "Ġ223": 3536,
      "à¼¨à¼¢": 3537,
      "Ġ2900": 3538,
      "Ġ08": 3539,
      "à¾¨à¾²à¾Ģà¼ĭ": 3540,
      "ĠâĢĶâĢĿ": 3541,
      "Ġ326": 3542,
      "Ġ4100": 3543,
      "Ġ12315": 3544,
      "Ãłn": 3545,
      "ill": 3546,
      "Ġâħ£": 3547,
      "Ã¡n": 3548,
      "ĠARJ": 3549,
      "370": 3550,
      "996": 3551,
      "eb": 3552,
      "ew": 3553,
      "uc": 3554,
      "ug": 3555,
      "ÉĽ": 3556,
      "Ġv": 3557,
      "à¾Ĵà¾±à½´à½´à¼ĭ": 3558,
      "à½ĺà½Ĳà½¦": 3559,
      "à½Ĥà½ħà½ĺ": 3560,
      "à½ĩà½ĺ": 3561,
      "à½Ĥà½Ħà½ł": 3562,
      "Ġ433": 3563,
      "Ġ618": 3564,
      "Ġ1937": 3565,
      "Ġ1967": 3566,
      "Ġ303": 3567,
      "Ġ308": 3568,
      "Ġà½ĸà½ŀà½ł": 3569,
      "Ġ264": 3570,
      "Ġ269": 3571,
      "Ġ403": 3572,
      "Ġ298": 3573,
      "148": 3574,
      "Ġ336": 3575,
      "Ġ652": 3576,
      "369": 3577,
      "Â³Â¹": 3578,
      "Ġà¼¢à¼łà¼¢à¼ł": 3579,
      "Ġà¼¢à¼łà¼¡à¼©": 3580,
      "ĠTibetan": 3581,
      "Â²Â³Â¹": 3582,
      "ãĢģï¼Īï¼īï¼ļ": 3583,
      "TM": 3584,
      "ab": 3585,
      "ÇĶ": 3586,
      "Ġthe": 3587,
      "à½¦à½Ķ": 3588,
      "à½ĸà½¦à½ĸ": 3589,
      "à¾¡à¾·à½ºà¼į": 3590,
      "à½¨à½£": 3591,
      "à½ĸà½¤à½ĵ": 3592,
      "à½Ĥà½Ļà½ĸ": 3593,
      "à¾Ĵà½¼à¼İ": 3594,
      "Ġà½Ħà½łà½Ħ": 3595,
      "Ġ498": 3596,
      "Ġà½ĸà½¦à½Ħà½¦": 3597,
      "Ġ815": 3598,
      "Ġ1933": 3599,
      "1951": 3600,
      "Ġ311": 3601,
      "Ġ295": 3602,
      "109": 3603,
      "1047": 3604,
      "Ġ09": 3605,
      "1288": 3606,
      "ĠâĢĻâĢĿ": 3607,
      "168": 3608,
      "169": 3609,
      "Ġ356": 3610,
      "6655": 3611,
      "118": 3612,
      "à¼¢à¼łà¼łà¼¨": 3613,
      "Ġ5600": 3614,
      "ĠIOL": 3615,
      "à¼¡à¼©à¼¨à¼£": 3616,
      "à¼¡à¼©à¼¨à¼¨": 3617,
      "]ãĢĬ": 3618,
      "kype": 3619,
      "ock": 3620,
      "à½¦à½£": 3621,
      "à½¦à½Ļ": 3622,
      "à½¼à½²": 3623,
      "à½ĳà½ħ": 3624,
      "à¾±à½¼à¼İ": 3625,
      "à¾³à½²à¼ĭ": 3626,
      "à¾±à½²à¼¼": 3627,
      "à¾Ĺà½¼à¼ĭ": 3628,
      "à¾«à½²à¼į": 3629,
      "à½ºà¼į\"": 3630,
      "à½ģà½Ĥà½¢": 3631,
      "à½ĸà½Ļà½Ħà½¦": 3632,
      "Ġï¼ı": 3633,
      "Ġ417": 3634,
      "Ġ415": 3635,
      "Ġ590": 3636,
      "Ġ1920": 3637,
      "976655": 3638,
      "Ġ238": 3639,
      "Ġ282": 3640,
      "à¼©à¼¥": 3641,
      "à¼¨à¼§": 3642,
      "102": 3643,
      "Ġ335": 3644,
      "Ġà¼¢à¼§": 3645,
      "ĠMH": 3646,
      "à¼¡à¼©à¼©à¼£": 3647,
      "ï¼Ĵï¼Ĳï¼ĳï¼": 3648,
      "ï¼ĮãĢĤâĢĿ": 3649,
      "Ġxx": 3650,
      "\"Â«": 3651,
      "189": 3652,
      "144": 3653,
      "man": 3654,
      "ton": 3655,
      "Åį": 3656,
      "ãĬ": 3657,
      "à½Ĵ": 3658,
      "à½²\"": 3659,
      "à½ĳà½ĳà½Ħ": 3660,
      "à¾²à¼Ķ": 3661,
      "à¾Ĵà¾±à¼İ": 3662,
      "à½ĸà½¦à½ĸà½¦": 3663,
      "à¾Ĳà½²à¼ĭ": 3664,
      "à½ħà½ĺ": 3665,
      "âĢ°": 3666,
      "à½Ĥà½ĵà½ĵ": 3667,
      "Ġ377": 3668,
      "à¾¥à¼į": 3669,
      "Ġ530": 3670,
      "Ġ830": 3671,
      "Ġ842": 3672,
      "Ġà½Ĥà½¦à½ĵ": 3673,
      "Ġ1935": 3674,
      "Ġà½łà½ķà½Ħà½¦": 3675,
      "à½¢à½łà½ĺ": 3676,
      "Ġ1622": 3677,
      "1965": 3678,
      "Ġ231": 3679,
      "Ġ338": 3680,
      "Ġ364": 3681,
      "Ġï¹ŀ": 3682,
      "har": 3683,
      "ãĢĬãĢĭï¼ī": 3684,
      "olog": 3685,
      "Ġlajiazhaxi": 3686,
      "97665541": 3687,
      "\"à¼Ħà¼ħ": 3688,
      "SA": 3689,
      "[[": 3690,
      "ation": 3691,
      "ec": 3692,
      "ux": 3693,
      "Èµ": 3694,
      "à½Ĥà½ĸà½ĳ": 3695,
      "à½ŀà½ĺ": 3696,
      "âĢĵ": 3697,
      "à½łà½ĩà½Į": 3698,
      "Ġà½ĺà½ĵà½ĵ": 3699,
      "ï¼Ľ": 3700,
      "Ġ488": 3701,
      "Ġ434": 3702,
      "Ġ565": 3703,
      "Ġ545": 3704,
      "Ġ712": 3705,
      "Ġ820": 3706,
      "Ġ1922": 3707,
      "Ġ1940": 3708,
      "Ġ1931": 3709,
      "âĳ¶": 3710,
      "à¼łà¼¤": 3711,
      "ï¼īãĢģ": 3712,
      "Ġ241": 3713,
      "à¼©à¼¦": 3714,
      "328": 3715,
      "139": 3716,
      "ĠPh": 3717,
      "ĠCC": 3718,
      "Ġà¼¢à¼¨": 3719,
      "65295": 3720,
      "ĠâĢĿ[[": 3721,
      "Ġ----": 3722,
      "à¼¡à¼©à¼¨à¼¥": 3723,
      "ĠNBA": 3724,
      "97365295": 3725,
      "--------": 3726,
      "Ġï¼ĳï¼Ĵ": 3727,
      "ĠVR": 3728,
      "Ġ17697365295": 3729,
      "CI": 3730,
      "Windows": 3731,
      "ep": 3732,
      "hu": 3733,
      "ou": 3734,
      "qu": 3735,
      "ry": 3736,
      "son": 3737,
      "ÇĲ": 3738,
      "Ġà½łà½ļà½ĺ": 3739,
      "à½Ĥà½ĺà½Ĳ": 3740,
      "à½´à½¾à¼ĭ": 3741,
      "à½´à¼ĭà¼½": 3742,
      "à½ħà½¦": 3743,
      "à½ĳà½ĺà½ĳ": 3744,
      "âĢ¹": 3745,
      "à¾¦à¾²à½¼": 3746,
      "à½ĺà½Ĩà½ĳ": 3747,
      "Ġï¼Ļ": 3748,
      "Ġ412": 3749,
      "Ġ476": 3750,
      "Ġ790": 3751,
      "Ġ798": 3752,
      "Ġ860": 3753,
      "Ġ1928": 3754,
      "Ġ1914": 3755,
      "Ġ258": 3756,
      "Ġ402": 3757,
      "à¼¨à¼¨": 3758,
      "ĠAdobe": 3759,
      "138": 3760,
      "Ġ324": 3761,
      "Ġ329": 3762,
      "ĠPM": 3763,
      "Ġ555": 3764,
      "Ġ....": 3765,
      "Ġ5700": 3766,
      "Ġ5300": 3767,
      "Ġ6300": 3768,
      "à¾ļà¼ĭ": 3769,
      "à¼¡à¼©à¼¨à¼¢": 3770,
      "Ġà¼¡à¼©à¼¨à¼¥": 3771,
      "ĠOf": 3772,
      "15597665541": 3773,
      ")(": 3774,
      "Pr": 3775,
      "tr": 3776,
      "Ê¦": 3777,
      "à¤": 3778,
      "ĠÎ": 3779,
      "à½Ħà½ĸ": 3780,
      "à½¨à½¦": 3781,
      "à½ĸà½¤à½Ĥ": 3782,
      "à¾Ĳà½´à½´à¼ĭ": 3783,
      "ĠâĢĿ\"": 3784,
      "à½ĸà½ıà½ĺà½¦": 3785,
      "ï¼ı": 3786,
      "Ġ333": 3787,
      "Ġ392": 3788,
      "Ġ493": 3789,
      "Ġ518": 3790,
      "à½¦à½łà½¢": 3791,
      "Ġ720": 3792,
      "Ġ1113": 3793,
      "0001": 3794,
      "Ġ1350": 3795,
      "Ġ18000": 3796,
      "Ġ1744": 3797,
      "à¼©à¼¡": 3798,
      "Ġ314": 3799,
      "Ġ276": 3800,
      "321": 3801,
      "508": 3802,
      "140": 3803,
      "Ġ363": 3804,
      "Ġ345": 3805,
      "ĠTikTok": 3806,
      "Ġà¼¢à¼łà¼łà¼¦": 3807,
      "à¼¡à¼©à¼©à¼¨": 3808,
      "ï¼Įï¼Įï¼Įï¼Į": 3809,
      "Ġï¼ĮãĢĤ": 3810,
      "Ġofo": 3811,
      "ĠOffice": 3812,
      ").": 3813,
      "CN": 3814,
      "GB": 3815,
      "IMF": 3816,
      "PU": 3817,
      "mi": 3818,
      "Ġr": 3819,
      "à¾±à½±": 3820,
      "à½£à½£": 3821,
      "à½łà½ķà½£": 3822,
      "Ġà½¢à½ĵ": 3823,
      "à½Ĥà½ħà½ł": 3824,
      "à½ĸà½Łà½ĵ": 3825,
      "à¾«à½ºà¼ĭ": 3826,
      "à¾Ńà½±": 3827,
      "Ġ297": 3828,
      "ĠãĢĭ)": 3829,
      "Ġà½ĺà½ļà½Ħ": 3830,
      "Ġ389": 3831,
      "Ġ444": 3832,
      "Ġ496": 3833,
      "Ġ566": 3834,
      "Ġ763": 3835,
      "Ġ870": 3836,
      "Ġ940": 3837,
      "à¼¼à¼½": 3838,
      "Ġ1360": 3839,
      "Ġ17000": 3840,
      "Ġ249": 3841,
      "Ġ287": 3842,
      "Ġ316": 3843,
      "Ġà½Ļà½Ĥ": 3844,
      "Ġ291": 3845,
      "106": 3846,
      "Ġ0891": 3847,
      "Ġ342": 3848,
      "âĳłâĳ¡": 3849,
      "Ġï¹Ĵ": 3850,
      "à¼·à½¼": 3851,
      "Ġà¼¢à¼¡": 3852,
      "Ġà¼¢à¼¦": 3853,
      "ĠIP": 3854,
      "ĠIV": 3855,
      "ĠWi": 3856,
      "Ġ8300": 3857,
      "Ġà¼¡à¼©à¼©à¼¦": 3858,
      "ï¼ĮãĢĤâĢĿâĢľ": 3859,
      "Ġïĵĵ": 3860,
      "Ġïĸĳ": 3861,
      "ĠLinux": 3862,
      "Co": 3863,
      "ag": 3864,
      "ub": 3865,
      "Êĳ": 3866,
      "ĠY": 3867,
      "à¼ĭà½¼": 3868,
      "à½¼à½¿": 3869,
      "à½ĸà½Ĩ": 3870,
      "à½¢à½ī": 3871,
      "à½łà½ł": 3872,
      "à¾¡à¾·à½²à¼ĭ": 3873,
      "Ġà½¢à½ı": 3874,
      "à½Ľà½¢": 3875,
      "ĠâĢľâĢ¦âĢ¦": 3876,
      "à¾Ĵà¾²à½¼à¼į": 3877,
      "Ġà½łà½ĳà½ĸà½¦": 3878,
      "à¾³à½´à¼İ": 3879,
      "Ġï¼¿": 3880,
      "Ġï¼Ł": 3881,
      "Ġ422": 3882,
      "Ġ423": 3883,
      "Ġ(ãĢĬ": 3884,
      "Ġ533": 3885,
      "Ġ535": 3886,
      "Ġà½ĸà½¦à½ĺà½¦": 3887,
      "Ġ641": 3888,
      "Ġ730": 3889,
      "Ġ737": 3890,
      "Ġ841": 3891,
      "Ġ920": 3892,
      "Ġ1038": 3893,
      "Ġ1087": 3894,
      "Ġ1930": 3895,
      "ï¼īãĢĭ": 3896,
      "Ġ271": 3897,
      "105": 3898,
      "122": 3899,
      "ĠïĶ": 3900,
      "Ġà¼¢à¼¥": 3901,
      "à¼¢à¼łà¼łà¼¢": 3902,
      "à¼ĭà¼ĭà¼ĭà¼ĭà¼ĭà¼ĭà¼ĭ": 3903,
      "tic": 3904,
      "ãĢģãĢģãĢģãĢģ": 3905,
      "1975": 3906,
      "Ġà¼¡à¼©à¼©à¼¢": 3907,
      "Ġâħ¡": 3908,
      "ĠïĳĮ": 3909,
      "________________": 3910,
      "ology": 3911,
      "530": 3912,
      "DF": 3913,
      "Ã²": 3914,
      "Å«": 3915,
      "îģ": 3916,
      "ïĳ": 3917,
      "Ġà½ĸà½¤à½ł": 3918,
      "Ġin": 3919,
      "à½Ĥà½ļà½ĵ": 3920,
      "à¾±à¾Ńà¼į": 3921,
      "à½ĺà½ħ": 3922,
      "à¾¡à¾·à½±à¼ĭ": 3923,
      "à¾·à¾±à¼ĭ": 3924,
      "ĠãĢĭâĢľ": 3925,
      "Ġï¼Ĺ": 3926,
      "Ġ426": 3927,
      "Ġ516": 3928,
      "Ġ528": 3929,
      "Ġ526": 3930,
      "Ġ546": 3931,
      "Ġ537": 3932,
      "Ġ633": 3933,
      "Ġ747": 3934,
      "Ġ1943": 3935,
      "Ġ1902": 3936,
      "Ġï¼īãĢĬ": 3937,
      "Ġ1280": 3938,
      "Ġ16000": 3939,
      "à¼£à¼łà¼łà¼ł": 3940,
      "Ġ244": 3941,
      "895": 3942,
      "162": 3943,
      "115": 3944,
      "Ġ322": 3945,
      "Ġ367": 3946,
      "Ġ369": 3947,
      "ï¼ĮâĢĿ": 3948,
      "239": 3949,
      "à¼¢à¼łà¼łà¼¥": 3950,
      "Ġppp": 3951,
      "Ġ...\"\"": 3952,
      "ĠSh": 3953,
      "Ġ5800": 3954,
      "à¼¡à¼£à¼ł": 3955,
      "ĠMicrosoft": 3956,
      "Ġ1409": 3957,
      "Ġà¼¢à¼łà¼łà¼¥": 3958,
      "ohn": 3959,
      "Press": 3960,
      "îģĿ": 3961,
      "1974": 3962,
      "700": 3963,
      "ID": 3964,
      "IS": 3965,
      "av": 3966,
      "bo": 3967,
      "to": 3968,
      "Ġ_": 3969,
      "à½¦à½ŀ": 3970,
      "à½Ĥà½Ĥà½ĵà½¦": 3971,
      "à½ĵà½Ķà½ł": 3972,
      "à¾±à½»à¼ĭ": 3973,
      "à½º\"": 3974,
      "à½£à½ĸà½¦": 3975,
      "à¾Ĳà¾±à½¼à¼į": 3976,
      "à½ĸà½Łà½¢": 3977,
      "à¾¨à½²à¼į": 3978,
      "à¾Ķà½¼à¼İ": 3979,
      "à½łà½Ĳà½ĸà½¦": 3980,
      "à½Ĥà½Ļà½ĵ": 3981,
      "Ġà½Ģà½£": 3982,
      "ĠâĢľ......": 3983,
      "à½Ŀà½£": 3984,
      "à¾Ĵà¾²à¼½": 3985,
      "Ġ532": 3986,
      "Ġ575": 3987,
      "Ġ610": 3988,
      "Ġ760": 3989,
      "Ġ766": 3990,
      "Ġ832": 3991,
      "à½¡à½ĵà½ł": 3992,
      "Ġ946": 3993,
      "Ġ1939": 3994,
      "1969": 3995,
      "Ġ289": 3996,
      "à¼©à¼£": 3997,
      "à¼¨à¼£": 3998,
      "171": 3999,
      "256": 4000,
      "ĠAl": 4001,
      "ĠAAA": 4002,
      "143": 4003,
      "131": 4004,
      "134": 4005,
      "Ġ339": 4006,
      "Ġ348": 4007,
      "Ġ387": 4008,
      "ĠâĢľâĢĿâĢľâĢĿ": 4009,
      "code": 4010,
      "ĠãĢĭ()": 4011,
      "457": 4012,
      "Ġ6600": 4013,
      "Ġà¼¢à¼łà¼łà¼§": 4014,
      "à¼¡à¼©à¼©à¼©": 4015,
      "ĠETC": 4016,
      "à¼¡à¼©à¼¨à¼ł": 4017,
      "Â·Â·Â·Â·": 4018,
      "Ã¡ng": 4019,
      "??": 4020,
      "EO": 4021,
      "OC": 4022,
      "TE": 4023,
      "lus": 4024,
      "st": 4025,
      "vi": 4026,
      "ãĤ": 4027,
      "à½ĵà½£à½¦": 4028,
      "Ġà½£à½ī": 4029,
      "à¾Ļà½´à¼ĭ": 4030,
      "à¾Ńà½¼à¼į": 4031,
      "Ġ432": 4032,
      "Ġ512": 4033,
      "Ġ534": 4034,
      "Ġ795": 4035,
      "2025": 4036,
      "Ġà½łà½Ĥà½¢": 4037,
      "Ġ1923": 4038,
      "Ġ1907": 4039,
      "Ġà½ĸà½ĳà½ł": 4040,
      "Ġï¼īâĢľ": 4041,
      "Ġ281": 4042,
      "Ġ283": 4043,
      "à¼¨à¼¤": 4044,
      "à½¨à½łà½¢": 4045,
      "336": 4046,
      "114": 4047,
      "159": 4048,
      "Ġ327": 4049,
      "180": 4050,
      "Ġ346": 4051,
      "à¼¢à¼łà¼łà¼¡": 4052,
      "Ġ443": 4053,
      "à¼¡à¼¢à¼ł": 4054,
      "ĠSt": 4055,
      "ĠSDR": 4056,
      "à¼¡à¼¤à¼ł": 4057,
      "à¼¡à¼§à¼ł": 4058,
      "5746": 4059,
      "Ġ8244": 4060,
      "à¼¡à¼©à¼©à¼§": 4061,
      "à¼¡à¼©à¼¨à¼§": 4062,
      "tein": 4063,
      "Ġïıİ": 4064,
      "132": 4065,
      "AC": 4066,
      "GDP": 4067,
      "In": 4068,
      "az": 4069,
      "ey": 4070,
      "net": 4071,
      "Â»": 4072,
      "à½Ĥà½ĺà½īà½ĺ": 4073,
      "à½ĸà½ĳà½Ħ": 4074,
      "à½ĵà½ĳà½Ħ": 4075,
      "à¾±\"": 4076,
      "à½łà½ĳà½Ħà½¦": 4077,
      "à½ºà¼½": 4078,
      "à½¡à½ĳ": 4079,
      "à¾©à¾Ģ": 4080,
      "à¾³à½¼à¼İ": 4081,
      "à¾¦à¾²à½ºà¼ĭ": 4082,
      "Ġà½ĺà½İ": 4083,
      "ãĢĹ": 4084,
      "Ġà½ŀà½Ĥà½¦": 4085,
      "ĠâĢĿï¼»": 4086,
      "à½Ĥà½ĳà½¢": 4087,
      "à½ĺà½ĩà½ł": 4088,
      "Ġà½łà½ĸà½£": 4089,
      "Ġ510": 4090,
      "Ġ6200": 4091,
      "Ġ666": 4092,
      "Ġ742": 4093,
      "2022": 4094,
      "Ġ950": 4095,
      "Ġ1260": 4096,
      "Ġ1268": 4097,
      "Ġà½łà½ģà½£": 4098,
      "Ġ1419": 4099,
      "Ġ1435": 4100,
      "à¾Ģà¼İ": 4101,
      "Ġ259": 4102,
      "Ġ1005": 4103,
      "à¼¨à¼©": 4104,
      "Ġ279": 4105,
      "à½Ĭà½¢": 4106,
      "Ġ03": 4107,
      "Ġ07": 4108,
      "Ġ028": 4109,
      "à¼¡à¼©à¼¥à¼¨": 4110,
      "129": 4111,
      "Ġ355": 4112,
      "888": 4113,
      "135": 4114,
      "137": 4115,
      "Ġ362": 4116,
      "ĠPT": 4117,
      "âĢĶâĢĶâĢľ": 4118,
      "Ġ383": 4119,
      "Ġà¼¢à¼¤": 4120,
      "Ġ372": 4121,
      "Ġ374": 4122,
      "ĠãĢĭï¼ĪãĢĬãĢĭï¼ī": 4123,
      "à¼¡à¼¤à¼¡à¼©": 4124,
      "à¼¡à¼¥à¼ł": 4125,
      "tive": 4126,
      "à¼¡à¼©à¼©à¼¥": 4127,
      "à¼¡à¼©à¼©à¼¦": 4128,
      "ĠâĢĿï¼Īï¼ī": 4129,
      "ĠKTV": 4130,
      "Ġà¼¡à¼©à¼¨à¼©": 4131,
      "Ġà¼¡à¼©à¼¨à¼¨": 4132,
      "Ġï¼Ĵï¼Ĳ": 4133,
      "ĠRe": 4134,
      "Ãłng": 4135,
      "ĠIII": 4136,
      ")âĢĿ": 4137,
      ".âĢľ": 4138,
      "1000": 4139,
      "APEC": 4140,
      "LA": 4141,
      "MP": 4142,
      "Ma": 4143,
      "Mar": 4144,
      "The": 4145,
      "jÄ«": 4146,
      "ph": 4147,
      "tu": 4148,
      "ïį": 4149,
      "à¼ĭà½º": 4150,
      "à½ºà¼¼": 4151,
      "à½Ķà½ĺ": 4152,
      "à½Ĥà½¦à½Ħà½¦": 4153,
      "à¾Ĳà½²": 4154,
      "à½ĳà½Ĥà½Ħ": 4155,
      "Ġà½¢à½ł": 4156,
      "à¾«à¼į": 4157,
      "ĠâĢľ[": 4158,
      "à½ĸà½ıà½Ħà½¦": 4159,
      "à¾£à½¼à¼İ": 4160,
      "Ġ396": 4161,
      "Ġà½¨à½Ĥ": 4162,
      "Ġ465": 4163,
      "Ġ529": 4164,
      "Ġ585": 4165,
      "Ġ625": 4166,
      "Ġ690": 4167,
      "Ġ721": 4168,
      "Ġ761": 4169,
      "Ġ840": 4170,
      "Ġ1932": 4171,
      "Ġ1912": 4172,
      "Ġ1916": 4173,
      "à¾¤à¾²à½ºà¼ĭ": 4174,
      "Ġ1750": 4175,
      "167": 4176,
      "Ġ353": 4177,
      "Ġ354": 4178,
      "111": 4179,
      "Ġ341": 4180,
      "Ġà¼¢à¼£": 4181,
      "Ġ755": 4182,
      "ong": 4183,
      "ï¼½ãĢĬ": 4184,
      "ĠID": 4185,
      "Ġ6800": 4186,
      "Ġà¼¢à¼łà¼łà¼ł": 4187,
      "à¼¡à¼©à¼©à¼¤": 4188,
      "Ġà¼¡à¼©à¼¨à¼¤": 4189,
      "Äģng": 4190,
      "ĠîĢĦ": 4191,
      "Ġà½ĳà½ĸà½łà½¦": 4192,
      "und": 4193,
      "Ġà¼Ħà¼į": 4194,
      "ĠïĵĹ": 4195,
      "nicode": 4196,
      "ARS": 4197,
      "ïĸĳ": 4198,
      "ĠICU": 4199,
      "pen": 4200,
      "ric": 4201,
      "Ġg": 4202,
      "à½ĵà½ķ": 4203,
      "à¾Ĳà¾²à½²à¼ĭ": 4204,
      "à½ıà½ĸ": 4205,
      "à¾¤à¾²à½´à¼ĭ": 4206,
      "à¾Ķà¾·": 4207,
      "à½ĳà½Ģà½ĵ": 4208,
      "à½ĺà½łà½¢": 4209,
      "ĠãĢĭãĢĶ": 4210,
      "Ġ489": 4211,
      "Ġ416": 4212,
      "Ġ418": 4213,
      "Ġ427": 4214,
      "Ġ446": 4215,
      "Ġ519": 4216,
      "Ġ576": 4217,
      "à½ĺà½ĵà½ĸ": 4218,
      "Ġ632": 4219,
      "Ġ624": 4220,
      "Ġ638": 4221,
      "Ġ663": 4222,
      "Ġ997": 4223,
      "Ġ961": 4224,
      "Ġ1911": 4225,
      "Ġ1924": 4226,
      "à¼Įà¼Į": 4227,
      "Ġ1288": 4228,
      "Ġ1287": 4229,
      "Ġ1720": 4230,
      "Ġ14000": 4231,
      "Ġà½łà½ļà½£": 4232,
      "Ġ409": 4233,
      "ĠÂ·Â·Â·Â·Â·": 4234,
      "104": 4235,
      "108": 4236,
      "113": 4237,
      "à¼¡à¼łà¼£": 4238,
      "Ġï¹ı": 4239,
      "ĠCPU": 4240,
      "Ġà¼¢à¼¢": 4241,
      "à½±à½´à½¾à¼İ": 4242,
      "874": 4243,
      "âĳ£âĳ¤": 4244,
      "Ġ6700": 4245,
      "Ġ7100": 4246,
      "Ġ8800": 4247,
      "Ġà¼¢à¼łà¼łà¼£": 4248,
      "à¼¡à¼©à¼©à¼¡": 4249,
      "Ġ8400": 4250,
      "ĠEV": 4251,
      "Ġà¼¡à¼©à¼¨à¼ł": 4252,
      "Ġà¼¡à¼©à¼©à¼ł": 4253,
      "Ġà¼¡à¼©à¼©à¼§": 4254,
      "ĠïįĽ": 4255,
      "Ġà¼Ħà¼İ": 4256,
      "à¾´à¼ĭ": 4257,
      "1109": 4258,
      "Äĵng": 4259,
      "ĠWordPress": 4260,
      "CoV": 4261,
      "ĠÂ·Â·Â·Â·Â·Â·": 4262,
      "%)": 4263,
      "1972": 4264,
      "IF": 4265,
      "OM": 4266,
      "University": 4267,
      "].": 4268,
      "ks": 4269,
      "lin": 4270,
      "à½Ĥà½ĺà½ģà½ł": 4271,
      "à½ĳà½£à½¦": 4272,
      "à¾Ĳà¼į": 4273,
      "à¾±à½²à½²": 4274,
      "à¾¡à¾·": 4275,
      "à¾£à½²": 4276,
      "à½ĳà½ĺà½Ĥà½¦": 4277,
      "à½łà½Ĳà½Ĥà½¦": 4278,
      "ĠâĢĿãĢĬ": 4279,
      "Ġ397": 4280,
      "Ġ445": 4281,
      "Ġ499": 4282,
      "Ġ(âĢľ": 4283,
      "Ġ558": 4284,
      "Ġ523": 4285,
      "Ġ644": 4286,
      "Ġ670": 4287,
      "Ġ629": 4288,
      "Ġ787": 4289,
      "Ġ892": 4290,
      "Ġ836": 4291,
      "Ġ996": 4292,
      "Ġ980": 4293,
      "Ġ1044": 4294,
      "Ġ1918": 4295,
      "Ġ1904": 4296,
      "Ġï¼īï¼Ī": 4297,
      "à¼½à¼į": 4298,
      "Ġ1305": 4299,
      "Ġ1411": 4300,
      "Ġà½Ĥà½Łà½¢": 4301,
      "à¼¥à¼łà¼ł": 4302,
      "Ġ505": 4303,
      "à¼¨à¼¦": 4304,
      "1038": 4305,
      "1042": 4306,
      "125": 4307,
      "1286": 4308,
      "Ġ352": 4309,
      "280": 4310,
      "156": 4311,
      "ĠPPT": 4312,
      "Ġ384": 4313,
      "Ġ385": 4314,
      "Ġ464": 4315,
      "Ġ447": 4316,
      "ĠSkype": 4317,
      "à¼¡à¼¦à¼ł": 4318,
      "Ġ.......": 4319,
      "Ġ978": 4320,
      "ore": 4321,
      "Ġà¼¢à¼łà¼łà¼¢": 4322,
      "Ġ7800": 4323,
      "à¼¡à¼©à¼¨à¼¦": 4324,
      "ĠNo": 4325,
      "1971": 4326,
      "-----": 4327,
      "Ġï¼ĳï¼Ļ": 4328,
      "umm": 4329,
      "Ġ12306": 4330,
      "Åįng": 4331,
      "318": 4332,
      "PS": 4333,
      "TA": 4334,
      "han": 4335,
      "ie": 4336,
      "nba": 4337,
      "ush": 4338,
      "zz": 4339,
      "Åĭ": 4340,
      "ĠãĬ": 4341,
      "à½Ĥà½Ķà½¢": 4342,
      "à½Ĥà½ĺà½Ľ": 4343,
      "à½¢à½łà½Ħ": 4344,
      "à½¢à½©": 4345,
      "à½ĵà½łà½ĺ": 4346,
      "à¾±à½»": 4347,
      "à½´à¼ĭà¼İ": 4348,
      "à¾©à¼İ": 4349,
      "à½Ļà½£": 4350,
      "à½ĸà½ŀà½Ĥà½ĳ": 4351,
      "Ġà½ĳà½ĸà½¦": 4352,
      "à¾·à½¾à¼ĭ": 4353,
      "âĢ²": 4354,
      "à¾¦à¾±à½²à¼ĭ": 4355,
      "à½ĸà½Ĥà½Ĥ": 4356,
      "Ġ495": 4357,
      "Ġ619": 4358,
      "Ġ689": 4359,
      "Ġ648": 4360,
      "Ġ667": 4361,
      "Ġ758": 4362,
      "Ġ796": 4363,
      "Ġ740": 4364,
      "Ġ833": 4365,
      "Ġ880": 4366,
      "Ġ848": 4367,
      "Ġ1050": 4368,
      "Ġ1073": 4369,
      "Ġ1142": 4370,
      "à½£à½łà½ĺ": 4371,
      "Ġà½Ĥà½Ļà½Ĥ": 4372,
      "Ġ1580": 4373,
      "Ġ1340": 4374,
      "Ġ1840": 4375,
      "Ġ1787": 4376,
      "Ġ307": 4377,
      "1935": 4378,
      "Ġ504": 4379,
      "Ġ406": 4380,
      "Ġà½łà½Ĳà½ĳ": 4381,
      "à¼¦à¼łà¼ł": 4382,
      "Ġ04": 4383,
      "1283": 4384,
      "Ġ351": 4385,
      "663": 4386,
      "1134": 4387,
      "136": 4388,
      "Ġ321": 4389,
      "Ġ3241": 4390,
      "Ġ368": 4391,
      "Ġ343": 4392,
      "Ġ347": 4393,
      "Ġ349": 4394,
      "Ġ371": 4395,
      "Ġ379": 4396,
      "Ġ448": 4397,
      "Ġ8500": 4398,
      "Ġ779": 4399,
      "à¼¡à¼©à¼©à¼¢": 4400,
      "ook": 4401,
      "à¼¡à¼©à¼¨à¼¤": 4402,
      "à¼¡à¼©à¼¨à¼©": 4403,
      "Ġïį¡": 4404,
      "Ġ21600": 4405,
      "Ġ{(": 4406,
      "////////": 4407,
      "ummins": 4408,
      "737": 4409,
      "PA": 4410,
      "RC": 4411,
      "au": 4412,
      "ko": 4413,
      "ler": 4414,
      "oc": 4415,
      "ous": 4416,
      "ïķ": 4417,
      "Ġ\"": 4418,
      "Ġ,": 4419,
      "Ġà½łà½Ħ": 4420,
      "à½¦à½Ģ": 4421,
      "à½Ĥà½ĺà½Ħ": 4422,
      "à½Ĥà½ĩ": 4423,
      "à½Ĥà½ĸà½Ģ": 4424,
      "à½Ĥà½łà½Ľà½ĺ": 4425,
      "à½Ĥà½İ": 4426,
      "à½Ĥà½Ģà½ĵ": 4427,
      "à½¼à¼Įà¼į": 4428,
      "à½ĺà½ĵà½¦": 4429,
      "à¾Ĵà¾±à½¼à¼ĭ": 4430,
      "à¾³à¾Ģ": 4431,
      "à¾±à½²à¼Ķ": 4432,
      "à½ĳà½Ĥà½ĳ": 4433,
      "à¾Ķà¼Įà¼į": 4434,
      "à½Ļà½Ģ": 4435,
      "à½±à¼İ": 4436,
      "0067": 4437,
      "Ġ477": 4438,
      "Ġ588": 4439,
      "Ġà½ħà½ĳ": 4440,
      "Ġà½Ķà½łà½ĺ": 4441,
      "Ġ617": 4442,
      "Ġ688": 4443,
      "Ġ634": 4444,
      "Ġ698": 4445,
      "Ġ735": 4446,
      "Ġ723": 4447,
      "\"\"\"": 4448,
      "Ġ1026": 4449,
      "Ġ1925": 4450,
      "Ġ1944": 4451,
      "Ġ1908": 4452,
      "Ġ1250": 4453,
      "Ġ1267": 4454,
      "Ġ1642": 4455,
      "Ġ1414": 4456,
      "Ġ1440": 4457,
      "Ġ1447": 4458,
      "ï¼īâĢľ": 4459,
      "Ġ25000": 4460,
      "à¼£à¼¡à¼¨": 4461,
      "195": 4462,
      "1956": 4463,
      "1954": 4464,
      "ï¼ĪãĢĬ": 4465,
      "Ġ701": 4466,
      "Ġ502": 4467,
      "Ġ404": 4468,
      "Ġ274": 4469,
      "Ġ277": 4470,
      "ĠãĢĭãĢĬãĢĭ": 4471,
      "Ġ804": 4472,
      "ĠâĢĺâĢĻ": 4473,
      "ĠAG": 4474,
      "ĠATM": 4475,
      "339": 4476,
      "755": 4477,
      "704": 4478,
      "Ġ359": 4479,
      "151": 4480,
      "Ġ32000": 4481,
      "Ġ361": 4482,
      "348": 4483,
      "352": 4484,
      "ï¹ķ": 4485,
      "ĠCR": 4486,
      "Ġ373": 4487,
      "Ġ463": 4488,
      "Ġ484": 4489,
      "863": 4490,
      "999": 4491,
      "ĠSARS": 4492,
      "Ġ573": 4493,
      "ĠIS": 4494,
      "ĠIT": 4495,
      "ĠMa": 4496,
      "Ġ9600": 4497,
      "rac": 4498,
      "Ġï¼ĳï¼Ĳ": 4499,
      "ift": 4500,
      "/)": 4501,
      "Ch": 4502,
      "IC": 4503,
      "ber": 4504,
      "fÃ³": 4505,
      "hwa": 4506,
      "ss": 4507,
      "su": 4508,
      "Ġ*": 4509,
      "ĠîģĿ": 4510,
      "à½Ĥà½Ĥà½ĵà½ł": 4511,
      "à½ĵà½¡": 4512,
      "à½ĺà½ĳà½Ĥ": 4513,
      "à½ĺà½ĵà½ĺ": 4514,
      "à½ĳà½Ħà½ĺà½¦": 4515,
      "à¾²à½´à½¾à¼ĭ": 4516,
      "à½īà½ĸ": 4517,
      "à¾¤à½´à¼į": 4518,
      "à½ĳà½Ĥà½ĸ": 4519,
      "à½ĺà½Ĳà½Ħ": 4520,
      "Ġà½ĳà½Ĥà½¦": 4521,
      "âĢº": 4522,
      "à¾Ĵà¾±à½´à¼ĭà¼ĭ": 4523,
      "Ġà½ĸà½Ľ": 4524,
      "ãĢľ": 4525,
      "à½ĳà½Ģà½£": 4526,
      "à½ĸà½ıà½ĳ": 4527,
      "à½Ĥà½¤à½ĺà½¦": 4528,
      "Ġà½§à½łà½¢": 4529,
      "Ġ492": 4530,
      "Ġ429": 4531,
      "Ġ592": 4532,
      "Ġ669": 4533,
      "Ġ732": 4534,
      "Ġ775": 4535,
      "Ġ724": 4536,
      "207": 4537,
      "2035": 4538,
      "2021": 4539,
      "Ġ812": 4540,
      "Ġ822": 4541,
      "Ġ1060": 4542,
      "Ġ1035": 4543,
      "Ġ1917": 4544,
      "Ġ1929": 4545,
      "Ġ1905": 4546,
      "Ġï¼Īï¼Į": 4547,
      "Ġ1289": 4548,
      "Ġ1150": 4549,
      "Ġà½łà½ģà½Ħ": 4550,
      "Ġ1390": 4551,
      "Ġ1870": 4552,
      "Ġ1865": 4553,
      "Ġ1424": 4554,
      "192": 4555,
      "198": 4556,
      "1945": 4557,
      "à¼¤à¼łà¼ł": 4558,
      "Ġ292": 4559,
      "Ġ293": 4560,
      "Ġ294": 4561,
      "Ġ601": 4562,
      "170": 4563,
      "666": 4564,
      "Ġ451": 4565,
      "Ġ454": 4566,
      "186": 4567,
      "Ġ382": 4568,
      "Ġ659": 4569,
      "Ġ395": 4570,
      "463": 4571,
      "Ġ467": 4572,
      "Ġ80000": 4573,
      "Ġ0977": 4574,
      "Ġ543": 4575,
      "Ġ4900": 4576,
      "Ġ)ãĢĭ(": 4577,
      "Ġ679": 4578,
      "ãĢĤãĢĤ": 4579,
      "Ġ8600": 4580,
      "Ġà¼¦à¼ł": 4581,
      "Ġà¼¡à¼©à¼¨à¼¡": 4582,
      "ĠãĢģãĢģ": 4583,
      "Ġâħ¢": 4584,
      "ĠïĳĢ": 4585,
      "à¼¡à¼©à¼§à¼¦": 4586,
      "ndro": 4587,
      "à¾ŀà¼ĭ": 4588,
      "ĠâĢºâĢº": 4589,
      "ĠâĢľâĢĿâĢľâĢĿâĢľâĢĿ": 4590,
      "jÄ«ng": 4591,
      "),": 4592,
      ".\"": 4593,
      "211": 4594,
      "Bak": 4595,
      "EN": 4596,
      "EV": 4597,
      "Microsoft": 4598,
      "Pad": 4599,
      "ai": 4600,
      "dÃł": 4601,
      "ita": 4602,
      "our": 4603,
      "xt": 4604,
      "yth": 4605,
      "ÂŃ": 4606,
      "ïİ": 4607,
      "Ġà½łà½ĩà½Ĥà½¦": 4608,
      "à½Ĥà½Ĥà½ħ": 4609,
      "à½Ĥà½łà½ĩ": 4610,
      "à½Ĥà½ĳà½ĸà½Ħ": 4611,
      "à½Ĥà½Ĥà½ĳ": 4612,
      "à½¼à½¾": 4613,
      "à¾²à½±à¼ĭ": 4614,
      "à½Ķà½£": 4615,
      "à½Ķà½ī": 4616,
      "à½ĳà½ĸà½Ħà½¦": 4617,
      "à¾Ĺà½´": 4618,
      "à½ĩà½¦": 4619,
      "à½ĩà½Ħ": 4620,
      "à¾Ķà½¼à¼į": 4621,
      "à¾¦à¾·": 4622,
      "à½±à½ºà¼į": 4623,
      "0000": 4624,
      "0064": 4625,
      "à¾ķà½²à¼İ": 4626,
      "Ġ411": 4627,
      "Ġ421": 4628,
      "Ġ539": 4629,
      "Ġà½¤à½Ģ": 4630,
      "Ġ676": 4631,
      "Ġ710": 4632,
      "Ġ714": 4633,
      "Ġ776": 4634,
      "Ġ768": 4635,
      "à½ģà½łà½¢": 4636,
      "Ġ810": 4637,
      "Ġ828": 4638,
      "Ġ930": 4639,
      "Ġ1080": 4640,
      "âĢľãĢĬ": 4641,
      "Ġ1919": 4642,
      "Ġ1903": 4643,
      "Ġ1119": 4644,
      "Ġ1136": 4645,
      "Ġ1530": 4646,
      "Ġ1895": 4647,
      "à½ıà½łà½¢": 4648,
      "Ġ2280": 4649,
      "Ġ()âĢĿ": 4650,
      "Ġ606": 4651,
      "894": 4652,
      "166": 4653,
      "254": 4654,
      "ĠAB": 4655,
      "Ġ455": 4656,
      "Ġ457": 4657,
      "154": 4658,
      "ĠPC": 4659,
      "âĢĶâĢĶâĢĶ": 4660,
      "à¼·à½ºà¼ĭ": 4661,
      "Ġ439": 4662,
      "Ġ394": 4663,
      "Ġ398": 4664,
      "Ġ441": 4665,
      "ina": 4666,
      "Ġ60000": 4667,
      "ĠTe": 4668,
      "shop": 4669,
      "org": 4670,
      "orge": 4671,
      "ence": 4672,
      "Ġ7300": 4673,
      "Ġ6100": 4674,
      "ĠâŁ": 4675,
      "ĠUniversity": 4676,
      "ĠUnicode": 4677,
      "à¾´à½²à¼ĭ": 4678,
      "ÉķÊ°": 4679,
      "ÊĶa": 4680,
      "\"à¼Ħà¼ħà¼į": 4681,
      "%ãĢģ": 4682,
      "220": 4683,
      "320": 4684,
      "BL": 4685,
      "Le": 4686,
      "PM": 4687,
      "QQ": 4688,
      "TO": 4689,
      "dÃ¬": 4690,
      "fÇİ": 4691,
      "ly": 4692,
      "me": 4693,
      "sÊ°": 4694,
      "yu": 4695,
      "ËĢ": 4696,
      "á¹": 4697,
      "ïĵ": 4698,
      "à½Ĥà½łà½ģ": 4699,
      "à½Ĥà½ĸà½Ł": 4700,
      "à½Ĥà½łà½Ĥà½ĵ": 4701,
      "à½Ĥà½ĳà½Ķà½£": 4702,
      "à½Ĥà½Ĥà½ĵà½ĺ": 4703,
      "à½´\"": 4704,
      "à½ĵà½ģ": 4705,
      "à½²à¼ĭ\"": 4706,
      "à½ºà½²": 4707,
      "à½ºà¼İ\"": 4708,
      "à½Ģà½ĳ": 4709,
      "à½Ĳà½Ħà½¦": 4710,
      "à¾±à½ºà½º": 4711,
      "à½ĺà½¦à½¦": 4712,
      "à¾£à¾²à½¼": 4713,
      "à½ĳà½ĺà½Ħ": 4714,
      "à½ĺà½ļà½ĺ": 4715,
      "à¾¨à½±à¼ĭ": 4716,
      "Ġà½Ĥà½Ĩ": 4717,
      "Ġà½ģà½ĵ": 4718,
      "à½ĺà½Ľà½¦": 4719,
      "ĠâĢĿâĢĶâĢĶ": 4720,
      "à½ģà½Ĥà½Ģ": 4721,
      "ï¼ģ": 4722,
      "Ġ393": 4723,
      "Ġ413": 4724,
      "Ġ517": 4725,
      "Ġ544": 4726,
      "Ġ522": 4727,
      "Ġà½¤à½¦": 4728,
      "Ġ658": 4729,
      "Ġ622": 4730,
      "Ġ647": 4731,
      "Ġ719": 4732,
      "Ġ813": 4733,
      "Ġ970": 4734,
      "Ġ965": 4735,
      "Ġ967": 4736,
      "âĢľï¼ĮãĢĤâĢĿâĢľ": 4737,
      "Ġ1265": 4738,
      "Ġ1295": 4739,
      "Ġ1269": 4740,
      "Ġà½łà½ĩà½Ĥ": 4741,
      "Ġ1380": 4742,
      "Ġ1820": 4743,
      "Ġ1890": 4744,
      "Ġ1792": 4745,
      "Ġ1738": 4746,
      "Ġ1416": 4747,
      "Ġ408": 4748,
      "Ġ010": 4749,
      "à¼¡à¼©à¼ł": 4750,
      "à¼¡à¼©à¼¤à¼©": 4751,
      "à¼¡à¼©à¼¦à¼¨": 4752,
      "124": 4753,
      "1285": 4754,
      "ĠâĢĻâĢĺ": 4755,
      "Ġï¼Īï¼īãĢĭ": 4756,
      "Ġ357": 4757,
      "286": 4758,
      "Ġ453": 4759,
      "153": 4760,
      "Ġ386": 4761,
      "ann": 4762,
      "Ġ378": 4763,
      "Ġ551": 4764,
      "Ġ553": 4765,
      "263": 4766,
      "269": 4767,
      "Ġ399": 4768,
      "Ġ756": 4769,
      "Ġ568": 4770,
      "Ġpp": 4771,
      "8660": 4772,
      "ĠBBC": 4773,
      "371": 4774,
      "Ġ9800": 4775,
      "à½Ĺà½¦": 4776,
      "ĠDe": 4777,
      "ara": 4778,
      "ark": 4779,
      "ĠWeb": 4780,
      "Ġ7600": 4781,
      "à¼¡à¼©à¼¨à¼¡": 4782,
      "est": 4783,
      "use": 4784,
      "Ġïĵ¼": 4785,
      "ĠïĮĤ": 4786,
      "à¾´à½²": 4787,
      "ome": 4788,
      "otoshop": 4789,
      "ĠCCTV": 4790,
      "895508": 4791,
      "Ġ3241895508": 4792,
      "Baker": 4793,
      "116": 4794,
      "Ar": 4795,
      "NG": 4796,
      "Plus": 4797,
      "VD": 4798,
      "ire": 4799,
      "ld": 4800,
      "land": 4801,
      "po": 4802,
      "Ê¥": 4803,
      "Ġh": 4804,
      "Ġch": 4805,
      "à¾¼": 4806,
      "à¾ĩ": 4807,
      "à½Ĥà½ĸà½ħ": 4808,
      "à½Ĥà½Ĥà½Ł": 4809,
      "à½Ĥà½ķà½ĵ": 4810,
      "à½²à½º": 4811,
      "à½Ħà½ŀ": 4812,
      "à½ºà½ºà¼į": 4813,
      "à¾Ĵà¾²à½²à¼ĭ": 4814,
      "à½ºà¼ĭà¼¼": 4815,
      "à¾·à½¼à¼į\"": 4816,
      "à¾·à½±à½²à¼ĭ": 4817,
      "ĠâĢĿâĢĶ": 4818,
      "à¾¤à¾±à½²à½²à¼ĭ": 4819,
      "à½Ĥà½¡à½£": 4820,
      "à¾³à½´à¼½": 4821,
      "Ġ536": 4822,
      "Ġ598": 4823,
      "Ġ595": 4824,
      "à¼Ħà¼İ": 4825,
      "Ġ645": 4826,
      "Ġ717": 4827,
      "Ġ725": 4828,
      "Ġ744": 4829,
      "Ġ788": 4830,
      "Ġ)/": 4831,
      "Ġ)Â»": 4832,
      "Ġ829": 4833,
      "Ġ838": 4834,
      "Ġ882": 4835,
      "Ġ885": 4836,
      "Ġ886": 4837,
      "Ġ863": 4838,
      "Ġ874": 4839,
      "Ġà½Ĥà½ŀà½ł": 4840,
      "Ġ1020": 4841,
      "Ġ1913": 4842,
      "Ġ1901": 4843,
      "Ġ1127": 4844,
      "âĳ·": 4845,
      "Ġ1578": 4846,
      "Ġ1389": 4847,
      "Ġ1379": 4848,
      "Ġ1640": 4849,
      "Ġ1652": 4850,
      "Ġà½ĸà½Ļà½ĳ": 4851,
      "Ġà½łà½ļà½ĸ": 4852,
      "Ġ253974201": 4853,
      "193": 4854,
      "194": 4855,
      "1957": 4856,
      "Ġ503": 4857,
      "Ġ06": 4858,
      "1774": 4859,
      "Ġ808": 4860,
      "ĠâĢĶ?": 4861,
      "449": 4862,
      "1182": 4863,
      "283": 4864,
      "147": 4865,
      "149": 4866,
      "Ġ3368": 4867,
      "936": 4868,
      "ĠPro": 4869,
      "Ġ381": 4870,
      "240": 4871,
      "à¾°à½²": 4872,
      "767": 4873,
      "ï¹ŀ": 4874,
      "ĠCEO": 4875,
      "261": 4876,
      "279": 4877,
      "Ġ468": 4878,
      "Ġ1206": 4879,
      "Ġ474": 4880,
      "Ġ478": 4881,
      "int": 4882,
      "Ġà½ĸà½¤à½¢": 4883,
      "Ġà¼¡à¼¡à¼¨": 4884,
      "ï¼½ï¼»": 4885,
      "Ġà¼£à¼łà¼ł": 4886,
      "Ġ574": 4887,
      "ĠIMF": 4888,
      "Ġà¼¤à¼ł": 4889,
      "shÃ¬": 4890,
      "Ġà¼¥à¼ł": 4891,
      "ĠLi": 4892,
      "ram": 4893,
      "Ġà¼¡à¼©à¼¨à¼¢": 4894,
      "Ġà¼¡à¼©à¼¨à¼¦": 4895,
      "Ġà¼¡à¼©à¼©à¼¨": 4896,
      "Ġâħł": 4897,
      "Ġïĳĭ": 4898,
      "ternet": 4899,
      "Ġïĸ¨": 4900,
      "NASA": 4901,
      "Ġï¼ĳï¼Ĳï¼Ĳ": 4902,
      "ĠïĹĻ": 4903,
      "AST": 4904,
      "ĠâĢ¹âĢ¹": 4905,
      "à¾²à½±à½²à¼į": 4906,
      "\"ãĢĲ": 4907,
      "1970": 4908,
      "317": 4909,
      "CD": 4910,
      "CM": 4911,
      "Cummins": 4912,
      "De": 4913,
      "MA": 4914,
      "TS": 4915,
      "]\"": 4916,
      "ca": 4917,
      "cha": 4918,
      "ps": 4919,
      "sÃ¬": 4920,
      "tsa": 4921,
      "ÄĽ": 4922,
      "Ġà½İ": 4923,
      "Ġà½łà½Ĩà½Ħ": 4924,
      "à½Ĥà½Ĥà½ī": 4925,
      "à½Ĥà½Ĥà½Ļ": 4926,
      "à½Ĥà½ĸà½¦à½ĺ": 4927,
      "à½Ĥà½ĺà½ĳ": 4928,
      "à½ĳà½¡": 4929,
      "à½£à½¡": 4930,
      "à½£à½ĳà½Ħ": 4931,
      "à½ĺà½§": 4932,
      "à½ļà½łà½ĺ": 4933,
      "à½Ķà½łà½¢": 4934,
      "à¾²à½¼à½¾à¼ĭ": 4935,
      "à¾¡à½±à¼ĭ": 4936,
      "à¾©à½¼à¼ĭ": 4937,
      "à½łà½Ľà½ĸ": 4938,
      "Ġà½¦à½Ĥ": 4939,
      "à¾·à½±": 4940,
      "à½Ĥà½ħà½Ĥ": 4941,
      "à½łà½ĩà½ĺà½¦": 4942,
      "Ġà½Ĥà½Ĥ": 4943,
      "Ġà½Ĥà½¤à½¢": 4944,
      "à½łà½Ĩà½ĵ": 4945,
      "Ġ2026": 4946,
      "Ġà½Łà½¢": 4947,
      "Ġ514": 4948,
      "Ġ596": 4949,
      "Ġ594": 4950,
      "Ġ639": 4951,
      "Ġ716": 4952,
      "Ġ738": 4953,
      "Ġ739": 4954,
      "Ġ762": 4955,
      "205": 4956,
      "Ġ890": 4957,
      "Ġ843": 4958,
      "Ġ\"\"(": 4959,
      "Ġ1276": 4960,
      "Ġ1110": 4961,
      "Ġ1111": 4962,
      "Ġ1866": 4963,
      "Ġ1899": 4964,
      "Ġ1747": 4965,
      "Ġ1617": 4966,
      "Ġ1645": 4967,
      "Ġ1639": 4968,
      "Ġ1667": 4969,
      "Ġ1477": 4970,
      "1934": 4971,
      "1936": 4972,
      "1952": 4973,
      "à¼¤à¼łà¼łà¼ł": 4974,
      "Ġ509": 4975,
      "Ġ407": 4976,
      "Ġ02": 4977,
      "Ġ]ãĢľ": 4978,
      "à½Įà½ł": 4979,
      "176": 4980,
      "128": 4981,
      "583": 4982,
      "502": 4983,
      "Ġ809": 4984,
      "708": 4985,
      "Ġ//": 4986,
      "Ġ3240": 4987,
      "Ġ331": 4988,
      "âĢĶâĢĶãĢĬ": 4989,
      "355": 4990,
      "à¾°à½²à¼ĭ": 4991,
      "ĠCA": 4992,
      "Ġ653": 4993,
      "Ġ486": 4994,
      "ind": 4995,
      "Ġ-----": 4996,
      "les": 4997,
      "ood": 4998,
      "Ġà¼¡à¼©à¼¨à¼§": 4999,
      "à¼¡à¼©à¼§à¼¨": 5000,
      "Ê¨Ê°": 5001,
      "Äĵn": 5002,
      "ocket": 5003,
      "213": 5004,
      "BM": 5005,
      "Fran": 5006,
      "Ge": 5007,
      "John": 5008,
      "da": 5009,
      "den": 5010,
      "ga": 5011,
      "ne": 5012,
      "pta": 5013,
      "ÉĻ": 5014,
      "Ġ\\": 5015,
      "à½¢à½ŀ": 5016,
      "à½łà½Ķ": 5017,
      "à½ĺà½ŀ": 5018,
      "à½Ķà½Ħà½¦": 5019,
      "à½Ķà½©": 5020,
      "à½Ĥà½¦à½£à½¦": 5021,
      "à½¼à¼ĭà¼¼": 5022,
      "à½ĳà½Ħà½Ħ": 5023,
      "à½Ĩà½ĺà½¦": 5024,
      "à¾Ĳà¾²à½²": 5025,
      "à½ķà½łà½ĺ": 5026,
      "à¾±à½ºà½ºà¼į": 5027,
      "à½¤à½łà½Ħ": 5028,
      "à¾²à½¼à¼½": 5029,
      "à¾¤à½²": 5030,
      "à¾·\"": 5031,
      "Ġà½Ĥà½ĳà½ĸ": 5032,
      "à¾Ĳà¾±à¾Ģà¼ĭ": 5033,
      "ï¼¸": 5034,
      "Ġ524": 5035,
      "Ġ587": 5036,
      "Ġà½¤à½£": 5037,
      "Ġ692": 5038,
      "Ġ699": 5039,
      "Ġ7200": 5040,
      "Ġ713": 5041,
      "Ġ793": 5042,
      "Ġ764": 5043,
      "Ġ834": 5044,
      "Ġ925": 5045,
      "Ġ1032": 5046,
      "Ġ1054": 5047,
      "à¼¡à¼¡à¼¤": 5048,
      "à¼¡à¼¡à¼§": 5049,
      "Ġ1915": 5050,
      "Ġ1217": 5051,
      "Ġ1270": 5052,
      "Ġ1290": 5053,
      "Ġ1240": 5054,
      "Ġ1252": 5055,
      "âĳª": 5056,
      "à½İà½¦": 5057,
      "Ġà½łà½ģà½ĵ": 5058,
      "Ġ1361": 5059,
      "Ġà½ĸà½Ģà½¢": 5060,
      "Ġ1896": 5061,
      "Ġ1898": 5062,
      "Ġ1867": 5063,
      "Ġà½ĸà½Łà½¦": 5064,
      "Ġ1732": 5065,
      "Ġ1717": 5066,
      "Ġ1727": 5067,
      "Ġ1705": 5068,
      "Ġà½Ĥà½ĵà½Ħà½¦": 5069,
      "Ġ1644": 5070,
      "Ġ1682": 5071,
      "Ġ1434": 5072,
      "Ġ1429": 5073,
      "Ġ1455": 5074,
      "Ġ2550": 5075,
      "à¼£à¼¡à¼¥": 5076,
      "190": 5077,
      "1966": 5078,
      "Ġ.ãĢĬ": 5079,
      "Ġ1008": 5080,
      "Ġ704": 5081,
      "Ġ708": 5082,
      "Ġ2315": 5083,
      "Ġâĳ¬": 5084,
      "à¼¥à¼łà¼łà¼ł": 5085,
      "301": 5086,
      "1040": 5087,
      "326": 5088,
      "899": 5089,
      "Ġà¼½à¼į": 5090,
      "146": 5091,
      "777": 5092,
      "ĠPDF": 5093,
      "ans": 5094,
      "ant": 5095,
      "231": 5096,
      "236": 5097,
      "237": 5098,
      "409": 5099,
      "Ġ559": 5100,
      "à¼ĭà¼¼à¼½": 5101,
      "Ġ436": 5102,
      "367": 5103,
      "Ġ563": 5104,
      "Ġà½ĸà½¤à½Ĥà½¦": 5105,
      "ĠThe": 5106,
      "373": 5107,
      "ĠDVD": 5108,
      "ĠâĢĶâĢĶâĢľ": 5109,
      "Ġ683": 5110,
      "Ġ70000": 5111,
      "âĳ¦âĳ§": 5112,
      "lex": 5113,
      "à¼µà½²": 5114,
      "Ġà¼¢à¼łà¼łà¼¡": 5115,
      "ista": 5116,
      "ãĢĬãĢĭãĢĬãĢĭ": 5117,
      "Ġà¼¡à¼©à¼©à¼©": 5118,
      "Ġïį«": 5119,
      "Ġï¼ĳï¼ĵ": 5120,
      "Ġï¼ĳï¼ĸ": 5121,
      "ï¼Ĵï¼Ĳ": 5122,
      "à¾²à½±à½²à½¿": 5123,
      "à¾¶à¼ĭ": 5124,
      "Ġfor": 5125,
      "qhpta": 5126,
      "ĠWiFi": 5127,
      "ndroid": 5128,
      ".)": 5129,
      "AL": 5130,
      "Al": 5131,
      "APP": 5132,
      "CR": 5133,
      "EL": 5134,
      "HO": 5135,
      "MW": 5136,
      "NE": 5137,
      "Type": 5138,
      "bÃ¹": 5139,
      "ear": 5140,
      "ff": 5141,
      "io": 5142,
      "ile": 5143,
      "jÃ¬": 5144,
      "kÊ°a": 5145,
      "mg": 5146,
      "mo": 5147,
      "ov": 5148,
      "ox": 5149,
      "ver": 5150,
      "wÃº": 5151,
      "}(": 5152,
      "¸ï¼¸": 5153,
      "ÅĽ": 5154,
      "Ġà½²": 5155,
      "Ġà½¥": 5156,
      "à½Ĥà½Ĥà½ı": 5157,
      "à½Ĥà½ĺà½Ĥ": 5158,
      "à½Ĥà½Ĥà½ĵà½ĳ": 5159,
      "à½ĵà½¡à½Ħ": 5160,
      "à¾±à½¾": 5161,
      "à½ºà½¾": 5162,
      "à¾²à½¾": 5163,
      "à¾³à½½à¼ĭ": 5164,
      "à¾²à½´à½´": 5165,
      "à½£à½¦à½ĺà½īà½ĺ": 5166,
      "à½ĺà½¦à½Ģ": 5167,
      "à½łà½Ļ": 5168,
      "Ġà½ĳà½ł": 5169,
      "à¾±à¼ĭà¼ĭ": 5170,
      "à½łà½ĩà½ĳ": 5171,
      "à¾Ļà¾Ģ": 5172,
      "Ġà½Ĥà½¤à½Ħ": 5173,
      "à¾Ĳà¾±à½ºà¼Ķ": 5174,
      "à½ģà½Ĥà½ģ": 5175,
      "ĠãĢĸ": 5176,
      "ĠâĢľ....": 5177,
      "Ġ2970": 5178,
      "à½±à½¾": 5179,
      "Ġà½ļà½ĺ": 5180,
      "ĠãĢĭâĢĿ": 5181,
      "Ġï¼¸ï¼¸": 5182,
      "Ġ547": 5183,
      "Ġ675": 5184,
      "Ġ686": 5185,
      "Ġ642": 5186,
      "Ġ6168": 5187,
      "206": 5188,
      "2063": 5189,
      "Ġà½łà½¦": 5190,
      "Ġ958": 5191,
      "Ġ1088": 5192,
      "Ġ1090": 5193,
      "à¼¡à¼¡à¼¦": 5194,
      "Ġ1910": 5195,
      "Ġà½ĸà½ĳà½£": 5196,
      "Ġ1236": 5197,
      "Ġ1253": 5198,
      "Ġ1148": 5199,
      "à¼łà¼§": 5200,
      "Ġ1863": 5201,
      "Ġ1755": 5202,
      "Ġ1439": 5203,
      "à¼£à¼¡à¼§": 5204,
      "à¼£à¼¢à¼¥": 5205,
      "âĢĿï¼Ī": 5206,
      "1960": 5207,
      "1938": 5208,
      "Ġ705": 5209,
      "Ġâĳ«": 5210,
      "Ġâĳ´": 5211,
      "Ġ05": 5212,
      "à¼¡à¼©à¼¥à¼©": 5213,
      "à¼¡à¼©à¼¥à¼¡": 5214,
      "121": 5215,
      "127": 5216,
      "12345": 5217,
      "164": 5218,
      "Ġ807": 5219,
      "445": 5220,
      "ĠAn": 5221,
      "337": 5222,
      "338": 5223,
      "Ġ35000": 5224,
      "142": 5225,
      "145": 5226,
      "Ġ334": 5227,
      "224": 5228,
      "182": 5229,
      "187": 5230,
      "anu": 5231,
      "à¾°à¼į": 5232,
      "con": 5233,
      "Ġ556": 5234,
      "Ġ438": 5235,
      "Ġ754": 5236,
      "Ġ4750": 5237,
      "___": 5238,
      "Ġà¼£à¼¥": 5239,
      "ĠSer": 5240,
      "Ġ1109": 5241,
      "Ġ856": 5242,
      "à¼µà½¼": 5243,
      "à¼µà½¼à¼ĭ": 5244,
      "Ġ7700": 5245,
      "ï¼Įï¼ĮãĢĤ": 5246,
      "ich": 5247,
      "ral": 5248,
      "1973": 5249,
      "Ġà¼¡à¼łà¼ł": 5250,
      "tem": 5251,
      "Ġà¼¨à¼ł": 5252,
      "Ġà¼¡à¼©à¼©à¼£": 5253,
      "Ġà¼¡à¼©à¼©à¼¥": 5254,
      "à¼¡à¼©à¼§à¼¥": 5255,
      "Ġï¼ĵï¼Ĳ": 5256,
      "Ġcm": 5257,
      "Ã©n": 5258,
      "à¾Ľà½½": 5259,
      "ERS": 5260,
      "216": 5261,
      "265": 5262,
      "310": 5263,
      "350": 5264,
      "Adobe": 5265,
      "DA": 5266,
      "PI": 5267,
      "UCN": 5268,
      "dy": 5269,
      "for": 5270,
      "google": 5271,
      "ith": 5272,
      "ke": 5273,
      "ki": 5274,
      "ron": 5275,
      "ua": 5276,
      "ue": 5277,
      "xx": 5278,
      "xz": 5279,
      "Éĳ": 5280,
      "Ê£": 5281,
      "Ġ@": 5282,
      "Ġà½¿": 5283,
      "Ġgu": 5284,
      "Ġ________________": 5285,
      "à½ĳà½łà½ĺ": 5286,
      "à½Ħà½ģ": 5287,
      "à½£à½ĺà½¦": 5288,
      "à½Ķà½ŀ": 5289,
      "à½ħà½ĸ": 5290,
      "à¾²à½¼à¼į\"": 5291,
      "Ġà½ĳà½¦": 5292,
      "à½¨à½ĳ": 5293,
      "à½¨à½¤": 5294,
      "à½Ĥà½īà½Ĥ": 5295,
      "à¾¨à¾¨à¼ĭ": 5296,
      "à½ģà½Ħà½ŀ": 5297,
      "Ġà½Ĥà½¡à½ĵ": 5298,
      "à¾¦à¼į": 5299,
      "ãĢį": 5300,
      "à¾©à¼ĭà¼ĭ": 5301,
      "à½Ŀà½łà½¢": 5302,
      "à¾£à½¼à¼į": 5303,
      "Ġ2028": 5304,
      "Ġà½łà½ĳà½ł": 5305,
      "Ġà½§à½ĳ": 5306,
      "Ġ466": 5307,
      "Ġ515": 5308,
      "Ġ599": 5309,
      "Ġ549": 5310,
      "Ġ623": 5311,
      "Ġ682": 5312,
      "Ġ637": 5313,
      "Ġ785": 5314,
      "Ġ786": 5315,
      "Ġ767": 5316,
      "Ġ784": 5317,
      "Ġ988": 5318,
      "Ġ1014": 5319,
      "Ġ1040": 5320,
      "Ġ1065": 5321,
      "Ġ1064": 5322,
      "Ġ1057": 5323,
      "à¼¡à¼¡à¼ł": 5324,
      "Ġï¼ĪãĢĬ": 5325,
      "Ġ1216": 5326,
      "Ġ1246": 5327,
      "Ġ1130": 5328,
      "Ġ1135": 5329,
      "Ġ1180": 5330,
      "Ġ1185": 5331,
      "à½£à½łà½¢": 5332,
      "à¼¢à¼¡à¼ł": 5333,
      "Ġ1546": 5334,
      "Ġ1375": 5335,
      "Ġ1376": 5336,
      "Ġ1845": 5337,
      "Ġ1855": 5338,
      "Ġ1724": 5339,
      "Ġ1680": 5340,
      "Ġ1662": 5341,
      "Ġ1425": 5342,
      "Ġ1413": 5343,
      "Ġ1426": 5344,
      "975": 5345,
      "199": 5346,
      "Ġ1009": 5347,
      "Ġ709": 5348,
      "à¼¨à¼łà¼ł": 5349,
      "1055": 5350,
      "à¼¡à¼©à¼¦à¼¦": 5351,
      "1700": 5352,
      "1251": 5353,
      "Ġï½": 5354,
      "506": 5355,
      "Ġ806": 5356,
      "ĠAr": 5357,
      "331": 5358,
      "Ġ456": 5359,
      "à½¿à¼ĭ": 5360,
      "183": 5361,
      "242": 5362,
      "à¾°à½ºà¼ĭ": 5363,
      "ĠâĢľâĢĿâĢľ": 5364,
      "ĠCN": 5365,
      "804": 5366,
      "ĠâĢ¢âĢ¢âĢ¢": 5367,
      "Ġ4634": 5368,
      "361": 5369,
      "Ġ481": 5370,
      "Ġ1202": 5371,
      "Ġ442": 5372,
      "Ġ473": 5373,
      "ĠGMP": 5374,
      "à¼¡à¼¢à¼¤": 5375,
      "ert": 5376,
      "Ġà¼£à¼¢": 5377,
      "à¼¡à¼¤à¼łà¼©": 5378,
      "à½Ĺà½ł": 5379,
      "Ġ491": 5380,
      "Ġ------": 5381,
      "Ġ.....âĢĿ": 5382,
      "0523": 5383,
      "Ġ678": 5384,
      "Ġï¼īãĢĭãĢĬ": 5385,
      "Ġ6400": 5386,
      "Ġ1407": 5387,
      "ĠEX": 5388,
      "Ġà¼¡à¼łà¼łà¼ł": 5389,
      "elle": 5390,
      "Ġ11450": 5391,
      "ĠOpen": 5392,
      "ure": 5393,
      "Ãło": 5394,
      "ĠïĳĬ": 5395,
      "ï½ģ": 5396,
      "ĠïĲµ": 5397,
      "ĠïİĴ": 5398,
      "ASA": 5399,
      "Ġ6656": 5400,
      "ower": 5401,
      "ĠShift": 5402,
      "ĠAAAA": 5403,
      "\"[": 5404,
      "%-": 5405,
      ".ï¼Į": 5406,
      "524": 5407,
      "815": 5408,
      "?)": 5409,
      "An": 5410,
      "CO": 5411,
      "Cha": 5412,
      "GS": 5413,
      "PC": 5414,
      "Stein": 5415,
      "XX": 5416,
      "ash": 5417,
      "cri": 5418,
      "ii": 5419,
      "ij": 5420,
      "iv": 5421,
      "iz": 5422,
      "ira": 5423,
      "kÊ°": 5424,
      "oma": 5425,
      "sÊ°a": 5426,
      "tÊ°": 5427,
      "xha": 5428,
      "yÄģ": 5429,
      "Ġy": 5430,
      "à¾»": 5431,
      "à½Ĥà½Ĳà½Ħ": 5432,
      "à½Ĥà½ĳà½Ģà½¢": 5433,
      "à½ĸà½ĺà½¦": 5434,
      "à½ĸà½ļà½ĵ": 5435,
      "à½´à¼µ": 5436,
      "à¾²\"": 5437,
      "à½Ĥà½¦à½ĺ": 5438,
      "à½Ĥà½¦à½Ģ": 5439,
      "à¾Ĵà¾·à¼ĭ": 5440,
      "à½ŀà½łà½ĺ": 5441,
      "à¾Łà½±à¼ĭ": 5442,
      "à¾Łà½´à¼į": 5443,
      "à½ķà½łà½Ħ": 5444,
      "à½¤à½łà½ĺ": 5445,
      "à¾±à½²à½º": 5446,
      "à¾¡à¾·à½¼à¼ĭ": 5447,
      "à¾¡à¾·à¼į": 5448,
      "à½Ļà½¦": 5449,
      "Ġà½¦à½Ļ": 5450,
      "à¾·à¾±à½¼à¼ĭ": 5451,
      "à¾·à½±à½´à¼ĭ": 5452,
      "à½ĺà½Ħà½ĵ": 5453,
      "à½Ľà½¦": 5454,
      "Ġà½ĸà½ª": 5455,
      "à¾Ńà½±à½¾à¼ĭ": 5456,
      "à½Ĥà½Ļà½ĸà½¦": 5457,
      "ãĢĮ": 5458,
      "ãĢĸ": 5459,
      "ĠâĢĿ)": 5460,
      "ĠãĢĭ.": 5461,
      "ĠãĢĭãĢĮ": 5462,
      "ï¼³": 5463,
      "à¾Ĳà¾±à½²à¼į": 5464,
      "Ġ497": 5465,
      "Ġ597": 5466,
      "Ġ511": 5467,
      "Ġ548": 5468,
      "Ġ531": 5469,
      "Ġà½ħà½Ĥ": 5470,
      "Ġ613": 5471,
      "Ġ693": 5472,
      "Ġ635": 5473,
      "Ġ687": 5474,
      "Ġ728": 5475,
      "Ġ777": 5476,
      "Ġ718": 5477,
      "Ġ774": 5478,
      "Ġ)\"\"": 5479,
      "Ġ825": 5480,
      "Ġ866": 5481,
      "Ġ865": 5482,
      "Ġ884": 5483,
      "Ġà½Ĥà½ŀà½Ĥ": 5484,
      "Ġ\"\"âĢ¦âĢ¦": 5485,
      "Ġ990": 5486,
      "Ġ1016": 5487,
      "Ġ1011": 5488,
      "Ġ1028": 5489,
      "Ġ1092": 5490,
      "Ġ1045": 5491,
      "Ġ1069": 5492,
      "à¼¡à¼¡à¼¥": 5493,
      "Ġ1906": 5494,
      "à¼Įà¼ĭ": 5495,
      "Ġ1235": 5496,
      "Ġ1160": 5497,
      "Ġ1192": 5498,
      "Ġ1124": 5499,
      "Ġ1560": 5500,
      "Ġ1592": 5501,
      "Ġà½ıà½¢": 5502,
      "Ġ1332": 5503,
      "Ġ1392": 5504,
      "Ġ1395": 5505,
      "Ġ1354": 5506,
      "Ġ1378": 5507,
      "Ġ1373": 5508,
      "Ġ1873": 5509,
      "Ġ1721": 5510,
      "Ġ1780": 5511,
      "Ġ1405": 5512,
      "ï¼ī,": 5513,
      "Ġà½Ĥà½ıà½Ĥ": 5514,
      "Ġà½Ĥà½ıà½ĺà½¦": 5515,
      "196": 5516,
      "1911": 5517,
      "1937": 5518,
      "1955": 5519,
      "1968": 5520,
      "Ġà½Ĥà½¡à½ĺ": 5521,
      "Ġ2354": 5522,
      "ĠâĳŃ": 5523,
      "Ġ508": 5524,
      "305": 5525,
      "Ġ2950": 5526,
      "Ġ2980": 5527,
      "325": 5528,
      "à¼¡à¼©à¼¥à¼ł": 5529,
      "175": 5530,
      "507": 5531,
      "Ġ802": 5532,
      "440": 5533,
      "157": 5534,
      "Ġ3320": 5535,
      "221": 5536,
      "222": 5537,
      "229": 5538,
      "931": 5539,
      "ani": 5540,
      "ĠCtr": 5541,
      "ĠCLA": 5542,
      "Ġ655": 5543,
      "Ġà¼¢à¼¢à¼¨": 5544,
      "659": 5545,
      "Ġ431": 5546,
      "271": 5547,
      "Ġ461": 5548,
      "Ġ1204": 5549,
      "982": 5550,
      "Ġ471": 5551,
      "Ġ479": 5552,
      "ĠGPS": 5553,
      "868": 5554,
      "Ġà¼£à¼¡": 5555,
      "Ġ853": 5556,
      "Ġ)ãĢĭãĢĬ": 5557,
      "à½¥à½ł": 5558,
      "ory": 5559,
      "ens": 5560,
      "âĳ¨âĳ©": 5561,
      "Ġà¼§à¼ł": 5562,
      "ĠLu": 5563,
      "Ġ1709": 5564,
      "ell": 5565,
      "Â¹Â³Â²": 5566,
      "ĠiPad": 5567,
      "à¼¡à¼©à¼§à¼©": 5568,
      "Ġ17211": 5569,
      "Ä«n": 5570,
      "ida": 5571,
      "ÃŃng": 5572,
      "1582": 5573,
      "jiÄģ": 5574,
      "1192": 5575,
      "1124": 5576,
      "ĠPhotoshop": 5577,
      "ython": 5578,
      "230": 5579,
      "232": 5580,
      "4000": 5581,
      "660": 5582,
      "680": 5583,
      "797": 5584,
      "800": 5585,
      "845": 5586,
      "IL": 5587,
      "KV": 5588,
      "MS": 5589,
      "Ra": 5590,
      "TB": 5591,
      "Te": 5592,
      "Ver": 5593,
      "VOL": 5594,
      "ale": 5595,
      "bu": 5596,
      "dge": 5597,
      "ies": 5598,
      "iPhone": 5599,
      "kang": 5600,
      "lor": 5601,
      "ment": 5602,
      "rary": 5603,
      "tt": 5604,
      "uÃ©": 5605,
      "vel": 5606,
      "âħ": 5607,
      "Ġo": 5608,
      "Ġà½ª": 5609,
      "Ġma": 5610,
      "Ġà¼ĳ": 5611,
      "à½µ": 5612,
      "à½¦à½Ĥà½¦": 5613,
      "à½Ĥà½ģà½Ħ": 5614,
      "à½Ĥà½Ĥà½¡": 5615,
      "à½Ĥà½ĸà½ĳà½Ĥ": 5616,
      "à½Ĥà½ĸà½Łà½ł": 5617,
      "à½²à½ºà¼ĭ": 5618,
      "à½¢à½¡": 5619,
      "à½ĵà½łà½ĳ": 5620,
      "à½²à¼ĭà¼ĭà¼ĭ": 5621,
      "à¾Ĵà¾±à½²à¼ĭ": 5622,
      "à¾Ĵà¾²à½´à¼ĭ": 5623,
      "à½Ĩà½Ħà½¦": 5624,
      "à½Ĩà½Ĭ": 5625,
      "à¾Ĵà¾±à½ºà¼į": 5626,
      "à½ĸà½¦à½¦": 5627,
      "à¾Ĳà½ºà¼į": 5628,
      "à½Łà½ĸà½¦": 5629,
      "à¾£à¼İ": 5630,
      "à¾²à½ºà½²": 5631,
      "à¾·à¾Ń": 5632,
      "à½ĺà½Ħà½Į": 5633,
      "à½Ķà½¦à½ŀ": 5634,
      "Ġà½ģà½ĳ": 5635,
      "à¾Ńà¼İ": 5636,
      "à½łà½Ĳà½ł": 5637,
      "à¾¡à½´à¼İ": 5638,
      "à½ģà½Ĥà½ĳ": 5639,
      "à½ģà½Ĥà½ĸ": 5640,
      "à½ģà½Ĥà½ĺ": 5641,
      "ĠâĢľãĢģ": 5642,
      "à½ĳà½Ģà½ĳ": 5643,
      "à½Ĥà½Łà½ĳ": 5644,
      "Ġà½Łà½£": 5645,
      "Ġà½ĵà½łà½Ħ": 5646,
      "Ġà½ĸà½¢à½Ĥ": 5647,
      "Ġ(ãĢĬãĢĭ)": 5648,
      "Ġ627": 5649,
      "Ġ636": 5650,
      "Ġ643": 5651,
      "Ġ792": 5652,
      "Ġ765": 5653,
      "Ġ729": 5654,
      "203": 5655,
      "204": 5656,
      "208": 5657,
      "Ġ816": 5658,
      "Ġ844": 5659,
      "Ġ875": 5660,
      "Ġ846": 5661,
      "Ġ845": 5662,
      "Ġ918": 5663,
      "Ġ985": 5664,
      "Ġ1012": 5665,
      "Ġ1036": 5666,
      "Ġ1031": 5667,
      "Ġ1084": 5668,
      "Ġ1072": 5669,
      "Ġ1909": 5670,
      "Ġà½Ĥà½ħà½¢": 5671,
      "Ġï¼īâĢĿ": 5672,
      "Ġ1244": 5673,
      "Ġ1285": 5674,
      "Ġ1239": 5675,
      "Ġ1120": 5676,
      "Ġ1193": 5677,
      "Ġ1155": 5678,
      "Ġ1167": 5679,
      "Ġ1161": 5680,
      "Ġ1153": 5681,
      "Ġà½ĺà½Ĳà½Ħ": 5682,
      "Ġ1535": 5683,
      "à¼łà¼¨": 5684,
      "à½Ħà½łà½ĺ": 5685,
      "Ġ1310": 5686,
      "Ġ1346": 5687,
      "Ġ1338": 5688,
      "Ġ1886": 5689,
      "Ġ1862": 5690,
      "Ġ1710": 5691,
      "Ġ1714": 5692,
      "Ġ1782": 5693,
      "Ġ1741": 5694,
      "Ġ1753": 5695,
      "Ġ3042": 5696,
      "Ġ1689": 5697,
      "Ġ1670": 5698,
      "Ġ1668": 5699,
      "Ġ1684": 5700,
      "Ġ1490": 5701,
      "Ġ1418": 5702,
      "Ġ1445": 5703,
      "Ġ1499": 5704,
      "à¼£à¼£à¼ł": 5705,
      "1958": 5706,
      "1967": 5707,
      "Ġ22000": 5708,
      "Ġâĳª": 5709,
      "Ġâĳ®": 5710,
      "Ġ507": 5711,
      "302": 5712,
      "Ġ604": 5713,
      "Ġ]\"": 5714,
      "324": 5715,
      "1742": 5716,
      "ĠAL": 5717,
      "669": 5718,
      "Ġ9060": 5719,
      "141": 5720,
      "à¼¡à¼łà¼¨": 5721,
      "à¼¡à¼łà¼¢à¼§": 5722,
      "152": 5723,
      "342": 5724,
      "ï¹Ŀ": 5725,
      "ĠCBA": 5726,
      "Ġ657": 5727,
      "Ġ9500": 5728,
      "Ġ482": 5729,
      "Ġ483": 5730,
      "4218": 5731,
      "Ġà½ĸà½¤à½ĵ": 5732,
      "472": 5733,
      "ĠTJ": 5734,
      "ĠSocket": 5735,
      "Ġ572": 5736,
      "Ġ1553": 5737,
      "Ġ583": 5738,
      "à¼¡à¼§à¼¢à¼£": 5739,
      "à¼¡à¼¥à¼łà¼ł": 5740,
      "943": 5741,
      "Ġ979": 5742,
      "ĠMac": 5743,
      "shÃŃ": 5744,
      "ĠâĢĿ(ãĢĬ": 5745,
      "ĠNoto": 5746,
      "Ġà¼¡à¼©à¼©à¼¤": 5747,
      "Ġï¼ĳï¼ĳ": 5748,
      "Ġï¼ĳï¼ĺ": 5749,
      "ibrary": 5750,
      "ï¼Ĵï¼Ĳï¼Ĳ": 5751,
      "mation": 5752,
      "Ãłi": 5753,
      "tions": 5754,
      "ack": 5755,
      "ĠãĢĤâĢĿ": 5756,
      "ÊĲa": 5757,
      "Ġï¼Ĵï¼Ĳï¼ĳï¼ĸ": 5758,
      "ĠInternet": 5759,
      "ĠAlt": 5760,
      "ĠâĢ¢âĢ¢âĢ¢âĢ¢âĢ¢": 5761,
      "ĠCtrl": 5762,
      "-)": 5763,
      "133": 5764,
      "212": 5765,
      "215": 5766,
      "685": 5767,
      "AI": 5768,
      "AV": 5769,
      "Ber": 5770,
      "CT": 5771,
      "IN": 5772,
      "ROM": 5773,
      "SD": 5774,
      "SL": 5775,
      "SO": 5776,
      "bÄģ": 5777,
      "bat": 5778,
      "dh": 5779,
      "day": 5780,
      "gy": 5781,
      "ima": 5782,
      "jec": 5783,
      "kg": 5784,
      "kh": 5785,
      "km": 5786,
      "kÉĽ": 5787,
      "my": 5788,
      "pra": 5789,
      "uk": 5790,
      "vs": 5791,
      "vin": 5792,
      "Ġà¼": 5793,
      "Ġà¼łà¼ł": 5794,
      "à½¦à½ĳà½Ħ": 5795,
      "à½Ĥà½Ĥà½ĵ": 5796,
      "à½²à½¾": 5797,
      "à½¼à½²à¼ĭ": 5798,
      "à½¼à½¼à¼İ": 5799,
      "à½ĳà½ģ": 5800,
      "à½Ħà½Ĩ": 5801,
      "à½¢à½ģ": 5802,
      "à½´à½¾": 5803,
      "à½¼à¼ĭà¼ĭà¼ĭà¼ĭ": 5804,
      "à¾Ĵà½²à¼ĭ": 5805,
      "à½¡à½Ĥà½¦": 5806,
      "à½ºà¼ĭà¼İ": 5807,
      "à½ºà¼ĭà¼½": 5808,
      "à¾Łà½²à¼İ": 5809,
      "à½łà½ĳà½£": 5810,
      "à¾¤à¼į": 5811,
      "à¾©à½´à¼ĭ": 5812,
      "à¾±à½´à½´": 5813,
      "à½ĺà½ļà½Ħà½¦": 5814,
      "à¾·à¼Ķ": 5815,
      "ãĢī": 5816,
      "à½ģà½Ĥà½£à½¦": 5817,
      "à½Ĥà½ĵà½Ĥà½¦": 5818,
      "Ġà½ķà½ĳ": 5819,
      "Ġà½ķà½Ĭ": 5820,
      "Ġ2063": 5821,
      "Ġ2057": 5822,
      "à½ĸà½ĳà½Ĥà½ģ": 5823,
      "Ġ(âĢ¢": 5824,
      "Ġ577": 5825,
      "Ġ538": 5826,
      "Ġ697": 5827,
      "Ġ612": 5828,
      "Ġ611": 5829,
      "Ġ621": 5830,
      "Ġ696": 5831,
      "Ġ668": 5832,
      "Ġ789": 5833,
      "Ġ733": 5834,
      "Ġ746": 5835,
      "Ġ858": 5836,
      "Ġ811": 5837,
      "Ġ877": 5838,
      "Ġ821": 5839,
      "Ġ847": 5840,
      "Ġ1075": 5841,
      "Ġ1076": 5842,
      "Ġ1085": 5843,
      "Ġ1042": 5844,
      "Ġ1099": 5845,
      "Ġ1059": 5846,
      "à¼¡à¼¡à¼©": 5847,
      "à¼¡à¼¡à¼¢": 5848,
      "Ġ1926": 5849,
      "Ġ1245": 5850,
      "Ġ1247": 5851,
      "Ġ1279": 5852,
      "Ġ1175": 5853,
      "à¼¢à¼¢à¼ł": 5854,
      "Ġ1538": 5855,
      "Ġ1387": 5856,
      "Ġ1349": 5857,
      "Ġ1897": 5858,
      "Ġ1810": 5859,
      "Ġ1813": 5860,
      "Ġ1880": 5861,
      "Ġ1846": 5862,
      "Ġ1838": 5863,
      "Ġ1881": 5864,
      "Ġ1711": 5865,
      "Ġ1723": 5866,
      "Ġ1745": 5867,
      "Ġ1742": 5868,
      "Ġ1754": 5869,
      "Ġ1697": 5870,
      "Ġ1653": 5871,
      "Ġ1450": 5872,
      "9715": 5873,
      "à¼£à¼¢à¼©": 5874,
      "à¼£à¼¢à¼¦": 5875,
      "1933": 5876,
      "Ġ707": 5877,
      "Ġâĳ¯": 5878,
      "Ġâĳ±": 5879,
      "Ġâĳµ": 5880,
      "Ġ()\"\"": 5881,
      "Ġ506": 5882,
      "Ġà½Ļà½ł": 5883,
      "Ġ2956": 5884,
      "1039": 5885,
      "1059": 5886,
      "Ġ]ãĢĬ": 5887,
      "172": 5888,
      "1737": 5889,
      "581": 5890,
      "165": 5891,
      "509": 5892,
      "605": 5893,
      "253": 5894,
      "259": 5895,
      "Ġï¼Īï¼īâĢĿ": 5896,
      "334": 5897,
      "757": 5898,
      "1136": 5899,
      "Ġ///": 5900,
      "à¼¡à¼łà¼¥": 5901,
      "349": 5902,
      "356": 5903,
      "Ġ1774": 5904,
      "238": 5905,
      "ĠCO": 5906,
      "ĠCe": 5907,
      "Ġà¼¢à¼¢à¼§": 5908,
      "264": 5909,
      "à¾©à¾Ńà½²à¼ĭ": 5910,
      "Ġ462": 5911,
      "Ġ1207": 5912,
      "Ġ564": 5913,
      "Ġ567": 5914,
      "Ġ569": 5915,
      "985": 5916,
      "Ġ472": 5917,
      "ĠGe": 5918,
      "à½±à½´à½¾": 5919,
      "Ġà½ĸà½¤à½ĺ": 5920,
      "Ġà¼£à¼¨": 5921,
      "Ġ1101": 5922,
      "Ġ1104": 5923,
      "Ġ1108": 5924,
      "à¼¡à¼¤à¼¡à¼¥": 5925,
      "Ġà½Ľà½ĳ": 5926,
      "Ġ661": 5927,
      "arti": 5928,
      "tiÄģn": 5929,
      "shÄ«": 5930,
      "ors": 5931,
      "Ġà¼¥à¼¡à¼łà¼ł": 5932,
      "Ġ1408": 5933,
      "ĠWTO": 5934,
      "Ġ8700": 5935,
      "à¾ļà½¼": 5936,
      "Ġà¼§à¼¨": 5937,
      "Ġ6900": 5938,
      "ĠNASA": 5939,
      "rase": 5940,
      "Ġ9100": 5941,
      "à¾µà½´à¼ĭ": 5942,
      "ted": 5943,
      "chen": 5944,
      "Ġï¼Ĵï¼Ĳï¼Ĳ": 5945,
      "Ġà¼©à¼¢": 5946,
      "Ġï¼ĳï¼ķ": 5947,
      "Ġï¼ĳï¼Ĺ": 5948,
      "Ġï¼Įï¼Į": 5949,
      "ĠOrac": 5950,
      "ĠJohn": 5951,
      "à¼¡à¼©à¼§à¼¢": 5952,
      "à¼¡à¼©à¼§à¼§": 5953,
      "Ġïĸª": 5954,
      "pation": 5955,
      "ÊĲÉ¯": 5956,
      "ĠïĲ¢": 5957,
      "jiÃ¨": 5958,
      "Ġà¼łà¼§": 5959,
      "Tibetan": 5960,
      "ÈµÉ¤": 5961,
      "Ã²u": 5962,
      "RCA": 5963,
      "ĠãĢĭ.[": 5964,
      "ĠâĢ¢âĢ¢âĢ¢âĢ¢âĢ¢âĢ¢": 5965,
      "imala": 5966,
      "ĠOracle": 5967,
      "\"à¼¼": 5968,
      "-?)": 5969,
      "366": 5970,
      "315": 5971,
      "5000": 5972,
      "612": 5973,
      "783": 5974,
      "960": 5975,
      "918": 5976,
      "App": 5977,
      "CL": 5978,
      "DM": 5979,
      "HI": 5980,
      "IT": 5981,
      "Po": 5982,
      "Pro": 5983,
      "SB": 5984,
      "Sh": 5985,
      "Sam": 5986,
      "SDR": 5987,
      "We": 5988,
      "ati": 5989,
      "ala": 5990,
      "bh": 5991,
      "ix": 5992,
      "ish": 5993,
      "ll": 5994,
      "pro": 5995,
      "ris": 5996,
      "sÃł": 5997,
      "wz": 5998,
      "ÇĴ": 5999,
      "Ġ;": 6000,
      "à½¦à½ģ": 6001,
      "à½Ĥà½ļà½Ħ": 6002,
      "à½Ĥà½ĳà½Ģ": 6003,
      "à½¼à½º": 6004,
      "à½ĳà½ĳà½Ĥ": 6005,
      "à½ĸà½¡": 6006,
      "à½Ħà½£à½¦": 6007,
      "à½´à¼·à¼ĭ": 6008,
      "à¾±à¼¼": 6009,
      "à¾Ĵà½ºà¼į": 6010,
      "à½Ģà½ĸ": 6011,
      "à½Ĩà½Į": 6012,
      "à¾Łà¾²à¼ĭ": 6013,
      "à¾²à½¼à¼İ\"": 6014,
      "à½ĳà½Ĥà½£": 6015,
      "à¾£à½²à¼ĭ": 6016,
      "à¾£à½¾": 6017,
      "à¾Ķà¾·à¼ĭ": 6018,
      "à½ĸà½ŀà½ĵ": 6019,
      "Ġà½ĳà½İ": 6020,
      "à¾·à¾²": 6021,
      "ĠâĢĥ": 6022,
      "à¾¨à¾±à½²": 6023,
      "à¾¦à¼İ": 6024,
      "Ġà½ĺà½ħ": 6025,
      "à½£à½Ĥà½ĸ": 6026,
      "à¾Ńà½ºà¼į": 6027,
      "ĠâĢĿ{": 6028,
      "à½ĳà½Ģà½¦": 6029,
      "à½¢à½ĸà½¦à½£à½¦": 6030,
      "à¾Ļà½²à¼į": 6031,
      "Ġ2029": 6032,
      "Ġà½¨à½£": 6033,
      "Ġà½ĵà½£": 6034,
      "Ġï¼³": 6035,
      "Ġà½łà½ĸà½ĺ": 6036,
      "Ġ(ãĢģãĢģãĢģãĢģ": 6037,
      "Ġ513": 6038,
      "Ġ527": 6039,
      "Ġ586": 6040,
      "Ġà½¤à½ĸ": 6041,
      "Ġ677": 6042,
      "Ġ684": 6043,
      "Ġ722": 6044,
      "Ġ745": 6045,
      "Ġ783": 6046,
      "Ġ)]": 6047,
      "Ġà½łà½Ĥà½Ħà½¦": 6048,
      "Ġ888": 6049,
      "Ġ876": 6050,
      "Ġ899": 6051,
      "Ġ862": 6052,
      "Ġ881": 6053,
      "Ġ968": 6054,
      "Ġ1017": 6055,
      "Ġ1070": 6056,
      "Ġ1018": 6057,
      "Ġ1048": 6058,
      "Ġ1055": 6059,
      "Ġ1079": 6060,
      "Ġ19000": 6061,
      "Ġ1234": 6062,
      "Ġ1227": 6063,
      "Ġ1284": 6064,
      "Ġ1272": 6065,
      "Ġ1189": 6066,
      "Ġ1140": 6067,
      "Ġ1145": 6068,
      "Ġ1147": 6069,
      "Ġà½Ĥà½Ļà½ĵ": 6070,
      "âĳ¸": 6071,
      "Ġ1510": 6072,
      "0003": 6073,
      "Ġ1363": 6074,
      "Ġ1364": 6075,
      "Ġ1888": 6076,
      "Ġ1823": 6077,
      "Ġ1827": 6078,
      "Ġ1848": 6079,
      "Ġ1868": 6080,
      "Ġ1864": 6081,
      "Ġ1853": 6082,
      "Ġ1852": 6083,
      "Ġ1760": 6084,
      "Ġ1733": 6085,
      "Ġ1726": 6086,
      "Ġ1757": 6087,
      "Ġ1756": 6088,
      "Ġ3046": 6089,
      "Ġ1619": 6090,
      "Ġ1660": 6091,
      "Ġ1665": 6092,
      "Ġ1664": 6093,
      "Ġ1694": 6094,
      "Ġ1672": 6095,
      "Ġ1410": 6096,
      "Ġ1448": 6097,
      "Ġà½ĸà½Ļà½Ĥ": 6098,
      "à½Ĳà½łà½¢": 6099,
      "Ġà½Ĥà½ĳà½£": 6100,
      "Ġ2592": 6101,
      "1929": 6102,
      "1963": 6103,
      "Ġ1004": 6104,
      "Ġ703": 6105,
      "Ġ7028": 6106,
      "Ġ2299": 6107,
      "Ġ2284": 6108,
      "Ġ23000": 6109,
      "Ġâĳ°": 6110,
      "Ġâĳ²": 6111,
      "Ġ4068": 6112,
      "Ġ27000": 6113,
      "Ġ602": 6114,
      "à¼¡à¼©à¼¢à¼§": 6115,
      "à¼¡à¼©à¼¥à¼¥": 6116,
      "à¼¡à¼©à¼¤à¼¡": 6117,
      "1227": 6118,
      "1257": 6119,
      "584": 6120,
      "Ġà½ĸà½Ģà½łà½¦": 6121,
      "898": 6122,
      "Ġï»": 6123,
      "1617": 6124,
      "501": 6125,
      "505": 6126,
      "251": 6127,
      "443": 6128,
      "ĠABC": 6129,
      "335": 6130,
      "Ġ459": 6131,
      "934": 6132,
      "181": 6133,
      "1868": 6134,
      "à¾Ĺà½ºà¼į\"": 6135,
      "347": 6136,
      "354": 6137,
      "ana": 6138,
      "241": 6139,
      "249": 6140,
      "Ġà½ĺà½ĵà½£": 6141,
      "âĳłâĳ¢": 6142,
      "à¾°à½¼": 6143,
      "Ġ651": 6144,
      "Ġ654": 6145,
      "Ġ656": 6146,
      "Ġ552": 6147,
      "298": 6148,
      "368": 6149,
      "Ġ487": 6150,
      "Ġà¼¡à¼©à¼¡à¼ł": 6151,
      "Ġ1203": 6152,
      "Ġ1205": 6153,
      "Ġ561": 6154,
      "Ġ449": 6155,
      "383": 6156,
      "ĠTom": 6157,
      "ĠBA": 6158,
      "ĠBD": 6159,
      "onal": 6160,
      "491": 6161,
      "494": 6162,
      "Ġà¼£à¼£": 6163,
      "Ġà¼£à¼¤": 6164,
      "Ġà¼£à¼¦": 6165,
      "Ġ0976": 6166,
      "Ġ1552": 6167,
      "Ġ1102": 6168,
      "Ġ857": 6169,
      "à¼¡à¼¤à¼¥": 6170,
      "à¼¡à¼§à¼¢à¼©": 6171,
      "Ġ743": 6172,
      "ĠDard": 6173,
      "à¼¡à¼¡à¼¡": 6174,
      "Ġ?]": 6175,
      "Ġ672": 6176,
      "Ġ674": 6177,
      "à¼¡à¼¨à¼ł": 6178,
      "Ġà¼¤à¼¦": 6179,
      "ĠMar": 6180,
      "ĠMERS": 6181,
      "shÄĵng": 6182,
      "Ġ1309": 6183,
      "enti": 6184,
      "Ġà¼¥à¼¦": 6185,
      "Ġ1402": 6186,
      "âĢĺâĢĻ": 6187,
      "ĠEx": 6188,
      "7319": 6189,
      "ial": 6190,
      "ramm": 6191,
      "Ġà¼¡à¼©à¼¨à¼£": 6192,
      "Ġswz": 6193,
      "ĠFAST": 6194,
      "ism": 6195,
      "all": 6196,
      "Ġà¼¡à¼©à¼©à¼¡": 6197,
      "elli": 6198,
      "------": 6199,
      "ult": 6200,
      "Ġïįº": 6201,
      "Ġ12366": 6202,
      "Ġï¼Įï¼Įï¼Į": 6203,
      "mail": 6204,
      "ĠXP": 6205,
      "à¼¡à¼©à¼§à¼¤": 6206,
      "Ġïķĺ": 6207,
      "Ġhttps": 6208,
      "rea": 6209,
      "Ġà¼¡à¼¦à¼©à¼§": 6210,
      "ï¼Ļï¼ĺ": 6211,
      "ace": 6212,
      "Ġ1899715": 6213,
      "atch": 6214,
      "Çİn": 6215,
      "Ġïİ·": 6216,
      "mmanu": 6217,
      "ĠïĴı": 6218,
      "ifi": 6219,
      "à¼ĭà¼ĭà¼ĭà¼ĭà¼ĭà¼ĭà¼ĭà¼ĭà¼ĭà¼ĭà¼ĭ": 6220,
      "Ġï¼Ĵï¼Ĳï¼ĳï¼ķ": 6221,
      "ï¼ĳï¼Ļï¼ĺ": 6222,
      "cience": 6223,
      "istan": 6224,
      "Ġ0941": 6225,
      "epler": 6226,
      "IFI": 6227,
      "jÄ«ngÄģng": 6228,
      "annes": 6229,
      "ĠSerif": 6230,
      "dyg": 6231,
      "formation": 6232,
      "ĠOpenType": 6233,
      "ï½ģï½": 6234,
      "kangbat": 6235,
      "Ġswzdyg": 6236,
      "Ġ18997157319": 6237,
      "kangbatv": 6238,
      "**": 6239,
      ".âĢĿ": 6240,
      "1169": 6241,
      "260": 6242,
      "266": 6243,
      "292": 6244,
      "330": 6245,
      "421": 6246,
      "439": 6247,
      "825": 6248,
      "958": 6249,
      "Alex": 6250,
      "Con": 6251,
      "HK": 6252,
      "IA": 6253,
      "IP": 6254,
      "IUCN": 6255,
      "Pla": 6256,
      "Python": 6257,
      "SN": 6258,
      "SS": 6259,
      "ST": 6260,
      "Th": 6261,
      "Vf": 6262,
      "cs": 6263,
      "di": 6264,
      "ico": 6265,
      "ier": 6266,
      "ius": 6267,
      "mp": 6268,
      "ner": 6269,
      "pos": 6270,
      "qi": 6271,
      "sÄģn": 6272,
      "tb": 6273,
      "wit": 6274,
      "xuÃ©": 6275,
      "yn": 6276,
      "ys": 6277,
      "}{": 6278,
      "É¡": 6279,
      "Ġà½¼": 6280,
      "Ġtib": 6281,
      "Ġed": 6282,
      "ĠÊĶa": 6283,
      "à¾º": 6284,
      "à½¦à½Ķà½ł": 6285,
      "à½Ĥà½łà½ļ": 6286,
      "à½Ĥà½ĺà½Ĩ": 6287,
      "à½²à½¼à¼ĭ": 6288,
      "à½²à¼į\"": 6289,
      "à½ĳà½ķ": 6290,
      "à½Ħà½ĳà½Ħ": 6291,
      "à½ĵà½ħ": 6292,
      "à¾±à¼·": 6293,
      "à½łà½Ģ": 6294,
      "à½ĺà½ĸ": 6295,
      "à½ĺà½īà½ĺà½¦": 6296,
      "à¾²à½»": 6297,
      "à¾²à¼µ": 6298,
      "à½Ķà½ı": 6299,
      "à½ķà½Ĥà½¦": 6300,
      "à¾±à½¼à½¼": 6301,
      "à½£à½¦à½¦": 6302,
      "à¾¡à¾²à¼į": 6303,
      "à½Ķà½¢à½¦": 6304,
      "à½łà½ķà½ĺ": 6305,
      "à½¨à½Ģ": 6306,
      "à¾·à¾Ńà¼ĭ": 6307,
      "à¾·à½²à¼į": 6308,
      "âĢ»": 6309,
      "âĢĤ": 6310,
      "à¾Łà½ºà½ºà¼ĭ": 6311,
      "à¾Łà½ºà½ºà¼į": 6312,
      "à½ģà½Ħà½ĳ": 6313,
      "à½ĩà½łà½Ħ": 6314,
      "à½ĸà½ĳà½Ĥà½¦": 6315,
      "à½£à½Ĥà½¢": 6316,
      "Ġà½Ģà½¦": 6317,
      "ĠâĢĿãĢĭ": 6318,
      "à½ģà½Ĥà½Ĥ": 6319,
      "Ġà½¡à½ĺ": 6320,
      "à½±à¾Ģà¼ĭ": 6321,
      "ĠãĢĭ\"": 6322,
      "à½ĳà½¢à½ĳ": 6323,
      "Ġà½ĳà½Ķà½Ħà½¦": 6324,
      "Ġ419": 6325,
      "Ġ582": 6326,
      "Ġ5369": 6327,
      "à¼Ħà¼ħà¼į": 6328,
      "à¾²à¾Ńà¼į\"": 6329,
      "à¾²à¾Ńà¼½": 6330,
      "Ġ626": 6331,
      "Ġ664": 6332,
      "Ġ711": 6333,
      "Ġ769": 6334,
      "Ġ781": 6335,
      "Ġ)[": 6336,
      "Ġ893": 6337,
      "Ġ869": 6338,
      "Ġ867": 6339,
      "Ġ894": 6340,
      "Ġ861": 6341,
      "Ġ917": 6342,
      "Ġ935": 6343,
      "Ġ948": 6344,
      "Ġ1089": 6345,
      "Ġ1025": 6346,
      "Ġ1034": 6347,
      "Ġï¼Ī)": 6348,
      "Ġ1219": 6349,
      "Ġ1278": 6350,
      "Ġ1123": 6351,
      "Ġ1165": 6352,
      "Ġ1195": 6353,
      "à¼¢à¼¢à¼¤": 6354,
      "ãĢĬâĢľ": 6355,
      "Ġ1550": 6356,
      "Ġ1570": 6357,
      "Ġ1563": 6358,
      "Ġ1330": 6359,
      "Ġ1316": 6360,
      "Ġ1323": 6361,
      "Ġ1386": 6362,
      "Ġà½ĸà½Ģà½ĸ": 6363,
      "Ġ1850": 6364,
      "Ġ1877": 6365,
      "Ġ1876": 6366,
      "Ġ1885": 6367,
      "Ġ1856": 6368,
      "Ġ1872": 6369,
      "Ġ1871": 6370,
      "Ġ1879": 6371,
      "Ġ1758": 6372,
      "Ġ1725": 6373,
      "Ġ1718": 6374,
      "Ġ1798": 6375,
      "Ġ1786": 6376,
      "Ġà½ĸà½ħà½Ħà½¦": 6377,
      "Ġ1620": 6378,
      "Ġ1630": 6379,
      "Ġ1685": 6380,
      "Ġ1686": 6381,
      "Ġ1681": 6382,
      "Ġ1427": 6383,
      "Ġ1463": 6384,
      "à¼£à¼¢à¼¤": 6385,
      "à¼£à¼¢à¼§": 6386,
      "1900": 6387,
      "1914": 6388,
      "1904": 6389,
      "Ġ702": 6390,
      "Ġ2250": 6391,
      "Ġ2263": 6392,
      "Ġ2388": 6393,
      "Ġ2326": 6394,
      "Ġâĳ³": 6395,
      "Ġ26000": 6396,
      "Ġ401": 6397,
      "à¼§à¼łà¼ł": 6398,
      "303": 6399,
      "308": 6400,
      "327": 6401,
      "174": 6402,
      "580": 6403,
      "582": 6404,
      "589": 6405,
      "604": 6406,
      "255": 6407,
      "257": 6408,
      "442": 6409,
      "446": 6410,
      "447": 6411,
      "ĠâĢĿâĢľâĢĺ": 6412,
      "886": 6413,
      "8803": 6414,
      "282": 6415,
      "285": 6416,
      "1419": 6417,
      "1368": 6418,
      "à¼¡à¼łà¼¡": 6419,
      "Ġ3250": 6420,
      "Ġ3390": 6421,
      "227": 6422,
      "ĠPV": 6423,
      "ĠPt": 6424,
      "185": 6425,
      "357": 6426,
      "245": 6427,
      "247": 6428,
      "ĠâĢľâĢĿ(": 6429,
      "Ġ1773": 6430,
      "Ġ1778": 6431,
      "267": 6432,
      "Ġ954": 6433,
      "462": 6434,
      "464": 6435,
      "364": 6436,
      "Ġ4860": 6437,
      "Ġ1208": 6438,
      "Ġparti": 6439,
      "864": 6440,
      "à¼¡à¼¢à¼¥": 6441,
      "ĠTol": 6442,
      "ĠST": 6443,
      "ĠSam": 6444,
      "378": 6445,
      "Ġ571": 6446,
      "Ġ578": 6447,
      "555": 6448,
      "à½łà½ĳà½łà½¦": 6449,
      "Ġ859": 6450,
      "à¼¡à¼¤à¼©à¼¨": 6451,
      "ï¹ļãĢĬ": 6452,
      "Ġ7400": 6453,
      "lash": 6454,
      "ort": 6455,
      "Ġ778": 6456,
      "Ġ8844": 6457,
      "ï¼Įï¼ĮâĢĿ": 6458,
      "Ġà¼¦à¼¦": 6459,
      "Ġ8900": 6460,
      "ĠHimala": 6461,
      "ica": 6462,
      "à¼¢à¼©à¼ł": 6463,
      "âĢľâĢĿï¼ī": 6464,
      "chn": 6465,
      "ĠãĢĬãĢĭãĢĬãĢĭ": 6466,
      "Ġï¼Ĵï¼ĳ": 6467,
      "ĠVista": 6468,
      "ame": 6469,
      "ï¼ĵï¼ķ": 6470,
      "ãģ®": 6471,
      "Éķa": 6472,
      "ÉķÉ¤": 6473,
      "//////": 6474,
      "otem": 6475,
      "Ê¨o": 6476,
      "loud": 6477,
      "ÊĲÉª": 6478,
      "Ġwindows": 6479,
      "Ġïİ¹": 6480,
      "Ġ68520": 6481,
      "Ġïıľ": 6482,
      "ĠïĹĭ": 6483,
      "Ġ33797": 6484,
      "à¾Ľà¼ĭ": 6485,
      "obert": 6486,
      "cipation": 6487,
      "1305": 6488,
      "AMH": 6489,
      "ï¼Łï¼ī": 6490,
      "ucation": 6491,
      "ï¼Ĵï¼Ĳï¼ĳï¼ķ": 6492,
      "Ã²ng": 6493,
      "TES": 6494,
      "Ġ7323": 6495,
      "ïİµ": 6496,
      "sÊ°e": 6497,
      "ï¼ģâĢĿ": 6498,
      "Ġ12951": 6499,
      "useum": 6500,
      "indle": 6501,
      "à½łà½Ļà½£à½ĳ": 6502,
      "Ġguush": 6503,
      "Ġ(âĢ¢)": 6504,
      "ĠGeorge": 6505,
      "à¾ļà½¼à½¾à¼İ": 6506,
      "elliot": 6507,
      "Ġparticipation": 6508,
      ".ãĢģ": 6509,
      "/ï¼ī": 6510,
      "0109": 6511,
      "1309": 6512,
      "219": 6513,
      "233": 6514,
      "228": 6515,
      "293": 6516,
      "234": 6517,
      "377": 6518,
      "450": 6519,
      "613": 6520,
      "676": 6521,
      "742": 6522,
      "AN": 6523,
      "Br": 6524,
      "CC": 6525,
      "Ca": 6526,
      "Da": 6527,
      "ES": 6528,
      "Ex": 6529,
      "FC": 6530,
      "Har": 6531,
      "IOL": 6532,
      "LO": 6533,
      "Mad": 6534,
      "New": 6535,
      "PDF": 6536,
      "Sa": 6537,
      "Tim": 6538,
      "VID": 6539,
      "Word": 6540,
      "Will": 6541,
      "](": 6542,
      "]âĢĿ": 6543,
      "du": 6544,
      "eg": 6545,
      "men": 6546,
      "now": 6547,
      "rc": 6548,
      "si": 6549,
      "sen": 6550,
      "zu": 6551,
      "zang": 6552,
      "}ãĢĬ": 6553,
      "Ġac": 6554,
      "Ġwa": 6555,
      "à½¦à½¤": 6556,
      "à½¦à½Ĭ": 6557,
      "à½Ĥà½łà½Ľ": 6558,
      "à½Ĥà½ĺà½ļà½ĵ": 6559,
      "à½Ĥà½łà½ĳà½¦": 6560,
      "à½Ĥà½Ĥà½Ħà½¦": 6561,
      "à½Ĥà½Ķà½ĳ": 6562,
      "à½²à¼Į": 6563,
      "à½ĳà½Ĩ": 6564,
      "à½ĸà½ļ": 6565,
      "à½ĸà½ĸà½¢": 6566,
      "à½ĸà½£à½¦": 6567,
      "à½Ħà½¡": 6568,
      "à½¢à½ĳà½Ħ": 6569,
      "à½¢à½łà½ĳ": 6570,
      "à½¢à½İ": 6571,
      "à½ĵà½Ģ": 6572,
      "à½ĵà½Ķà½¦": 6573,
      "à½ĵà½Į": 6574,
      "à½£à½ģ": 6575,
      "à½£à½Ģ": 6576,
      "à½ĺà½¤": 6577,
      "à¾Ĵ\"": 6578,
      "à¾Ĵà¾·à½¾à¼ĭ": 6579,
      "à½´à¼ĭ\"": 6580,
      "à½ļà½Į": 6581,
      "à½ıà½łà½ĺ": 6582,
      "à½Ħà½¦à½¦": 6583,
      "à¾¤à¾±à¼ĭ": 6584,
      "à½łà½ĸà½Ħ": 6585,
      "à½Ĥà½ŀà½Ĥà½ĳ": 6586,
      "à¾Ĵà¾±à½´à¼İ\"": 6587,
      "à¾Ķà¼½": 6588,
      "à½łà½ķà½ĸ": 6589,
      "Ġà½¢à½Ģ": 6590,
      "à¾·à¾±à½±à¼ĭ": 6591,
      "à½Ĥà½īà½¦": 6592,
      "à½łà½ĩà½ĵ": 6593,
      "à¾¨à¾±à½º": 6594,
      "à¾¨à½´à¼į": 6595,
      "Ġà½ĺà½ĺ": 6596,
      "à¾Łà¼ĭà¼ĭ": 6597,
      "Ġà½ģà½łà½¢": 6598,
      "Ġà½ĸà½ĳà½ĺ": 6599,
      "ĠâĢĿï¼ī": 6600,
      "Ġà½¡à½ĺà½¦": 6601,
      "à½ĺà½Ĥà½Ħ": 6602,
      "à½ĺà½Ĩà½¢": 6603,
      "à½ĺà½Ĩà½ĺ": 6604,
      "Ġ2080": 6605,
      "Ġ2040": 6606,
      "ĠãĢĭï¹Ŀ": 6607,
      "ï¼Ń": 6608,
      "à½Ĥà½¤à½£": 6609,
      "Ġ(ï¼Į": 6610,
      "Ġ(ãĢģãĢģ": 6611,
      "à¼Ħà¼ħà¼ħ": 6612,
      "Ġà½ĸà½¦à½Ĥ": 6613,
      "Ġ646": 6614,
      "Ġ695": 6615,
      "Ġ782": 6616,
      "Ġ748": 6617,
      "Ġà½łà½Ĥà½Ĥà½¦": 6618,
      "Ġ819": 6619,
      "Ġ8200": 6620,
      "Ġ823": 6621,
      "Ġ827": 6622,
      "Ġ895": 6623,
      "Ġ887": 6624,
      "Ġ855": 6625,
      "Ġ868": 6626,
      "Ġ864": 6627,
      "Ġ912": 6628,
      "Ġ933": 6629,
      "Ġ975": 6630,
      "Ġ995": 6631,
      "Ġ964": 6632,
      "Ġ1030": 6633,
      "Ġ1081": 6634,
      "Ġ1056": 6635,
      "Ġà½ĺà½Ħà½ĵ": 6636,
      "Ġ1210": 6637,
      "Ġ1266": 6638,
      "Ġ1293": 6639,
      "Ġ1296": 6640,
      "Ġ1286": 6641,
      "Ġ1248": 6642,
      "Ġ1271": 6643,
      "Ġ1112": 6644,
      "Ġ1121": 6645,
      "Ġ1182": 6646,
      "Ġ1141": 6647,
      "Ġ1162": 6648,
      "Ġ1159": 6649,
      "à½¡à½łà½ĺ": 6650,
      "âĳ«": 6651,
      "ĠÂ¡": 6652,
      "Ġ1577": 6653,
      "Ġ1564": 6654,
      "Ġ1583": 6655,
      "Ġà½ıà½ĺ": 6656,
      "Ġ1388": 6657,
      "Ġ1342": 6658,
      "Ġ1368": 6659,
      "Ġ1351": 6660,
      "Ġ1875": 6661,
      "Ġ1847": 6662,
      "Ġ1884": 6663,
      "Ġ1857": 6664,
      "Ġ1883": 6665,
      "Ġ1891": 6666,
      "Ġ1851": 6667,
      "Ġ1715": 6668,
      "Ġ1735": 6669,
      "Ġ1746": 6670,
      "Ġ1785": 6671,
      "Ġ1799": 6672,
      "Ġ1748": 6673,
      "Ġ1707": 6674,
      "Ġà½ĸà½ħà½Ĥà½¦": 6675,
      "Ġ1690": 6676,
      "Ġ1696": 6677,
      "Ġ1687": 6678,
      "Ġ1647": 6679,
      "Ġ1678": 6680,
      "Ġ1432": 6681,
      "Ġ1417": 6682,
      "Ġ1493": 6683,
      "Ġ1495": 6684,
      "Ġ1467": 6685,
      "Ġ1456": 6686,
      "à½¦à½ĺà½ĸ": 6687,
      "à¾Ĳà¾²à¼į": 6688,
      "ï¼īâĢĿ": 6689,
      "à¼£à¼¡à¼¤": 6690,
      "à¼£à¼¢à¼¨": 6691,
      "1923": 6692,
      "1964": 6693,
      "1901": 6694,
      "Ġ24000": 6695,
      "Ġ1007": 6696,
      "Ġ706": 6697,
      "Ġ2287": 6698,
      "Ġ2231": 6699,
      "Ġ2375": 6700,
      "Ġ2338": 6701,
      "Ġ28000": 6702,
      "Ġâĳ¶": 6703,
      "Ġâĳ·": 6704,
      "Ġâĳ¸": 6705,
      "Ġâĳº": 6706,
      "Ġ2642": 6707,
      "Ġ2776": 6708,
      "304": 6709,
      "à¼¦à¼©à¼ł": 6710,
      "Ġ2934": 6711,
      "à¼¡à¼©à¼¢à¼¦": 6712,
      "à¼¡à¼©à¼£à¼£": 6713,
      "à¼¡à¼©à¼¦à¼¥": 6714,
      "à¼¡à¼©à¼¦à¼£": 6715,
      "441": 6716,
      "Ġ3002": 6717,
      "884": 6718,
      "774": 6719,
      "909": 6720,
      "à¼¡à¼łà¼©": 6721,
      "1527": 6722,
      "223": 6723,
      "184": 6724,
      "340": 6725,
      "346": 6726,
      "ank": 6727,
      "246": 6728,
      "248": 6729,
      "768": 6730,
      "Ġ1772": 6731,
      "ĠCrea": 6732,
      "Ġà¼¢à¼¡à¼¦": 6733,
      "Ġà¼¢à¼¡à¼£": 6734,
      "268": 6735,
      "Ġ3945": 6736,
      "\"âĢĭâĢľ": 6737,
      "Ġ753": 6738,
      "Ġ757": 6739,
      "hai": 6740,
      "467": 6741,
      "Ġ1506": 6742,
      "Ġà¼¡à¼©à¼¥à¼©": 6743,
      "Ġà¼¡à¼©à¼§à¼£": 6744,
      "Ġ562": 6745,
      "384": 6746,
      "387": 6747,
      "ĠGar": 6748,
      "8212": 6749,
      "ĠTh": 6750,
      "onts": 6751,
      "Ġ4120": 6752,
      "Ġ0974": 6753,
      "372": 6754,
      "Ġ5720": 6755,
      "à¼¡à¼§à¼£à¼ł": 6756,
      "Ġ494": 6757,
      "ĠDDR": 6758,
      "à¼¡à¼¦à¼¤à¼¢": 6759,
      "Ġ662": 6760,
      "Ġà¼¤à¼§": 6761,
      "ĠMP": 6762,
      "ĠMV": 6763,
      "ĠMon": 6764,
      "Ġ1303": 6765,
      "Ġ8100": 6766,
      "let": 6767,
      "Ġ5900": 6768,
      "ene": 6769,
      "Ġ1804": 6770,
      "Ġ1808": 6771,
      "Ġ771": 6772,
      "ĠWIFI": 6773,
      "Ġ871": 6774,
      "ĠEU": 6775,
      "tain": 6776,
      "ĠHar": 6777,
      "ĠNBL": 6778,
      "à¼¢à¼¥à¼ł": 6779,
      "à¼¢à¼¥à¼¤": 6780,
      "Ġst": 6781,
      "ĠFre": 6782,
      "îĢĥ": 6783,
      "ali": 6784,
      "ust": 6785,
      "Ġï¼Ĵï¼Ĵ": 6786,
      "Ġï¼Ĵï¼ĺ": 6787,
      "Ġïį½": 6788,
      "Ġï¼ĳï¼Ķ": 6789,
      "Ġï¼ĳï¼ĳï¼": 6790,
      "Ġ''": 6791,
      "ĠOS": 6792,
      "ury": 6793,
      "ilg": 6794,
      "riti": 6795,
      "ast": 6796,
      "aceb": 6797,
      "acqu": 6798,
      "liÃ¹": 6799,
      "edu": 6800,
      "Éķi": 6801,
      "uda": 6802,
      "low": 6803,
      "15828": 6804,
      "Ġwifi": 6805,
      "ake": 6806,
      "Ġmo": 6807,
      "Ġ68576": 6808,
      "ĠâĢľï¼Įï¼ĮãĢĤâĢĿ": 6809,
      "Ġ3880": 6810,
      "obile": 6811,
      "1504": 6812,
      "à¾²à½±à¾Ģ": 6813,
      "tÊĤa": 6814,
      "istory": 6815,
      "Tibet": 6816,
      "TML": 6817,
      "ïĳµ": 6818,
      "Ġ5373": 6819,
      "à¼Įà¼Įà¼Įà¼Į": 6820,
      "ïķŃ": 6821,
      "ĠâŁª": 6822,
      "ĠâŁ«": 6823,
      "á¹£": 6824,
      "mmanuel": 6825,
      "ystem": 6826,
      "ĠCreative": 6827,
      "acebook": 6828,
      "acques": 6829,
      ")âĢľ": 6830,
      ".ï¼ī": 6831,
      "097": 6832,
      "0239": 6833,
      "258": 6834,
      "3201": 6835,
      "390": 6836,
      "415": 6837,
      "476": 6838,
      "480": 6839,
      "438": 6840,
      "499": 6841,
      "535": 6842,
      "523": 6843,
      "749": 6844,
      "822": 6845,
      "848": 6846,
      "992": 6847,
      "Am": 6848,
      "Android": 6849,
      "Bal": 6850,
      "Cas": 6851,
      "Df": 6852,
      "Ed": 6853,
      "Google": 6854,
      "IM": 6855,
      "Jim": 6856,
      "Li": 6857,
      "Land": 6858,
      "Mac": 6859,
      "St": 6860,
      "Science": 6861,
      "TT": 6862,
      "Toh": 6863,
      "TikTok": 6864,
      "VR": 6865,
      "War": 6866,
      "ZQ": 6867,
      "[]": 6868,
      "ae": 6869,
      "aco": 6870,
      "ath": 6871,
      "br": 6872,
      "bÇİ": 6873,
      "bps": 6874,
      "cy": 6875,
      "cel": 6876,
      "ean": 6877,
      "fc": 6878,
      "fg": 6879,
      "ger": 6880,
      "lu": 6881,
      "lard": 6882,
      "mb": 6883,
      "pad": 6884,
      "pÃº": 6885,
      "txt": 6886,
      "wn": 6887,
      "wÇĶ": 6888,
      "wÃ¡ng": 6889,
      "xÄ«n": 6890,
      "yan": 6891,
      "yÄ«": 6892,
      "zin": 6893,
      "zÇĲ": 6894,
      "Ê¼": 6895,
      "à¥": 6896,
      "Ġq": 6897,
      "Ġco": 6898,
      "Ġcn": 6899,
      "Ġsa": 6900,
      "Ġun": 6901,
      "Ġde": 6902,
      "à½ĥ": 6903,
      "à½¦à½ĸà½¢": 6904,
      "à½¦à½¢à½Ħ": 6905,
      "à½Ĥà½ļà½ĳ": 6906,
      "à½Ĥà½ĳà½Ģà½ł": 6907,
      "à½Ĥà½ĳà½ĺà½¢": 6908,
      "à½Ĥà½Ĳà½ĵ": 6909,
      "à½Ĥà½Ĳà½ł": 6910,
      "à½Ħà½Ĥà½¦": 6911,
      "à½´à½²à¼ĭ": 6912,
      "à½ĵà½ı": 6913,
      "à¾±à¼½": 6914,
      "à½łà½£": 6915,
      "à½łà½ŀ": 6916,
      "à½ºà½²à¼ĭ": 6917,
      "à½ĺà½Łà½ĳ": 6918,
      "à½Ĥà½¦à½ŀ": 6919,
      "à½Ĥà½¦à½łà½ĳ": 6920,
      "à½¼à¼ĭ\"": 6921,
      "à½¼à¼ĭà¼ĭà¼ĭ": 6922,
      "à½¼à¼ĭà¼ĭà¼ĭà¼ĭà¼ĭ": 6923,
      "à¾Ĵà¾·": 6924,
      "à¾Ĵà¾±\"": 6925,
      "à½ĵà½¦à½¢": 6926,
      "à¾±à½¼à½²": 6927,
      "à¾¤à¾±à½ºà¼ĭ": 6928,
      "à½Ĥà½ŀà½ĸà½¦": 6929,
      "à¾Ķà½ºà¼ĭ": 6930,
      "à½ĳà½ĸà½ĳ": 6931,
      "à½¨à½Ķ": 6932,
      "âĢĮ": 6933,
      "à¾Łà½ºà¼¼": 6934,
      "à½ģà½Ħà½Ĥ": 6935,
      "à½ģà½Ħà½¢": 6936,
      "à½ĸà½Ģà½Ģ": 6937,
      "à½£à½Ĥà½ĺ": 6938,
      "à¾Ńà½²": 6939,
      "à¾Ĳà½´à¼Ķ": 6940,
      "à½ĺà½Ľà½¢": 6941,
      "à½ģà½Ĥà½ķ": 6942,
      "ĠâĢľ,": 6943,
      "ĠâĢľï¼ĮãĢĤâĢĿâĢľ": 6944,
      "à½łà½Ĩà½¦": 6945,
      "à½łà½Ĩà½ĸ": 6946,
      "à½ĸà½Ļà½ĸà½¦": 6947,
      "à½Ĥà½Ħà½£": 6948,
      "à½Ĳà½Ĥà½ĸ": 6949,
      "à½Ĳà½Ĥà½¢": 6950,
      "à½ĸà½ıà½ĵ": 6951,
      "à½ĸà½ıà½£": 6952,
      "Ġ2060": 6953,
      "Ġ2092": 6954,
      "0017": 6955,
      "0066": 6956,
      "004000": 6957,
      "à½ĸà½ŀà½Ĥà½ģ": 6958,
      "Ġà½łà½ĸà½Ĥà½¦": 6959,
      "Ġ521": 6960,
      "à¾©à¾Ńà¼ĭà¼ĭ": 6961,
      "à½ĺà½ĵà½Ħà½¦": 6962,
      "à½ĸà½ĸà½ĸ": 6963,
      "Ġ614": 6964,
      "Ġ691": 6965,
      "Ġ736": 6966,
      "2095": 6967,
      "Ġà½Ķà½ī": 6968,
      "Ġ826": 6969,
      "Ġ898": 6970,
      "Ġ831": 6971,
      "Ġ849": 6972,
      "Ġ\"\"ãĢĬ": 6973,
      "Ġ\"\"ï¼Ī": 6974,
      "Ġ934": 6975,
      "Ġ998": 6976,
      "Ġ999": 6977,
      "Ġ1015": 6978,
      "Ġ1022": 6979,
      "Ġ1082": 6980,
      "Ġ1067": 6981,
      "Ġ1063": 6982,
      "Ġà½łà½ķà½Ĥ": 6983,
      "Ġà½ĸà½ĳà½¢": 6984,
      "Ġ1211": 6985,
      "Ġ1298": 6986,
      "Ġ1255": 6987,
      "Ġ12348": 6988,
      "Ġ1170": 6989,
      "Ġ1164": 6990,
      "Ġ1156": 6991,
      "à½¡à½łà½¢": 6992,
      "âĳŃ": 6993,
      "à¼¢à¼£à¼ł": 6994,
      "à¼¢à¼¢à¼¦": 6995,
      "Ġ1567": 6996,
      "Ġ1584": 6997,
      "Ġ1397": 6998,
      "Ġ1312": 6999,
      "Ġ1322": 7000,
      "Ġ1324": 7001,
      "Ġ1345": 7002,
      "Ġ1385": 7003,
      "Ġ1357": 7004,
      "Ġ1359": 7005,
      "Ġà½ĸà½Ģà½ĳ": 7006,
      "Ġà½ĸà½Ģà½ĵ": 7007,
      "Ġ1889": 7008,
      "Ġ1844": 7009,
      "Ġ1811": 7010,
      "Ġ1892": 7011,
      "Ġ1824": 7012,
      "Ġ1836": 7013,
      "Ġ1882": 7014,
      "Ġ1894": 7015,
      "Ġ1770": 7016,
      "Ġ1713": 7017,
      "Ġ1740": 7018,
      "Ġ1749": 7019,
      "Ġ1767": 7020,
      "Ġ1762": 7021,
      "Ġ1761": 7022,
      "Ġ1703": 7023,
      "Ġ1704": 7024,
      "Ġ1708": 7025,
      "Ġ1610": 7026,
      "Ġ1618": 7027,
      "Ġ1635": 7028,
      "Ġ1636": 7029,
      "Ġ1699": 7030,
      "Ġ1669": 7031,
      "Ġ1637": 7032,
      "Ġ1655": 7033,
      "Ġ1683": 7034,
      "Ġ1420": 7035,
      "Ġ1430": 7036,
      "Ġ1433": 7037,
      "Ġ1475": 7038,
      "Ġ1423": 7039,
      "Ġ1442": 7040,
      "Ġ1491": 7041,
      "Ġà½ĸà½Ļà½Ĥà½¦": 7042,
      "Ġà½Ŀà½ł": 7043,
      "Ġ2520": 7044,
      "Ġ25457": 7045,
      "à¼£à¼¡à¼£": 7046,
      "âĢĶ)": 7047,
      "1946": 7048,
      "1953": 7049,
      "ï¼ĪâĢ¢": 7050,
      "à¼¢à¼łà¼£à¼ł": 7051,
      "Ġ100000": 7052,
      "Ġ2158": 7053,
      "Ġ2180": 7054,
      "Ġ2350": 7055,
      "Ġ2360": 7056,
      "Ġ2345": 7057,
      "Ġ2890": 7058,
      "Ġ()ãĢĭ": 7059,
      "Ġ501": 7060,
      "à¼¨à¼łà¼łà¼ł": 7061,
      "Ġ3120": 7062,
      "à¼§à¼¢à¼ł": 7063,
      "Ġà½Ļà½Ħ": 7064,
      "Ġ605": 7065,
      "Ġ607": 7066,
      "Ġ608": 7067,
      "Ġ609": 7068,
      "1068": 7069,
      "3220": 7070,
      "3236": 7071,
      "à¼¡à¼©à¼¥à¼¦": 7072,
      "à¼¡à¼©à¼¥à¼§": 7073,
      "à¼¡à¼©à¼¦à¼¢": 7074,
      "178": 7075,
      "588": 7076,
      "892": 7077,
      "ĠâĢĻâĢĻ": 7078,
      "5057": 7079,
      "603220": 7080,
      "448": 7081,
      "ĠAI": 7082,
      "ãĢĭãĢĬ": 7083,
      "753": 7084,
      "1110": 7085,
      "Ġà½ĸà½ıà½ĺà½¦": 7086,
      "881": 7087,
      "Ġ/////////": 7088,
      "Ġ452": 7089,
      "Ġ909": 7090,
      "773": 7091,
      "1392": 7092,
      "1385": 7093,
      "1364": 7094,
      "1357": 7095,
      "903": 7096,
      "à¼¡à¼łà¼¢": 7097,
      "à¼¡à¼łà¼¤": 7098,
      "Ġ3360": 7099,
      "Ġ3650": 7100,
      "226": 7101,
      "ĠPower": 7102,
      "ĠPenti": 7103,
      "1872": 7104,
      "Ġ3840": 7105,
      "ano": 7106,
      "765": 7107,
      "ĠCI": 7108,
      "ĠCom": 7109,
      "Ġ3720": 7110,
      "à¾¨à½ºà½º": 7111,
      "654": 7112,
      "Ġ557": 7113,
      "Ġ951": 7114,
      "273": 7115,
      "278": 7116,
      "Ġ3911": 7117,
      "468": 7118,
      "Ġ469": 7119,
      "452": 7120,
      "Ġ485": 7121,
      "Ġà¼¡à¼©à¼¥à¼¨": 7122,
      "Ġà¼¡à¼©à¼§à¼©": 7123,
      "Ġ4740": 7124,
      "385": 7125,
      "386": 7126,
      "855": 7127,
      "à¼¡à¼¢à¼¡": 7128,
      "ere": 7129,
      "ern": 7130,
      "872": 7131,
      "879": 7132,
      "âĳ¢âĳ£": 7133,
      "âĳ¢âĳ£âĳ¤": 7134,
      "Ġ...âĢĿ": 7135,
      "474": 7136,
      "ĠTCL": 7137,
      "481": 7138,
      "Ġà¼£à¼©": 7139,
      "ĠSans": 7140,
      "Ġ584": 7141,
      "à¼¡à¼¤à¼¨": 7142,
      "à¼¡à¼¤à¼£à¼¢": 7143,
      "683": 7144,
      "à¼¡à¼§à¼£à¼¢": 7145,
      "ĠDb": 7146,
      "à¼¡à¼¦à¼¥": 7147,
      "à¼¡à¼¦à¼¨": 7148,
      "à¼¡à¼¥à¼§": 7149,
      "ĠIBC": 7150,
      "843": 7151,
      "Ġ671": 7152,
      "lam": 7153,
      "ĠMan": 7154,
      "Ġ13997": 7155,
      "shÃłn": 7156,
      "orld": 7157,
      "à¼µà½ºà¼ĭ": 7158,
      "à¾ĥà¼į": 7159,
      "Ġ86603220": 7160,
      "ĠKu": 7161,
      "Ġ9300": 7162,
      "à¼¢à¼¨à¼ł": 7163,
      "tate": 7164,
      "ĠLibrary": 7165,
      "ett": 7166,
      "ĠNew": 7167,
      "icha": 7168,
      "ical": 7169,
      "à¾ªà¼į": 7170,
      "iam": 7171,
      "ãĢģãĢģãĢģãĢģãĢģ": 7172,
      "à¾µà½²": 7173,
      "tel": 7174,
      "ĠFlash": 7175,
      "à¼¢à¼¤à¼ł": 7176,
      "Ġï¼Ĵï¼Ļ": 7177,
      "ĠîĢĪ": 7178,
      "ultu": 7179,
      "ĠiOS": 7180,
      "ĠîĢĥîĢĥ": 7181,
      "Ġà¼¡à¼¤à¼¡à¼©": 7182,
      "Ġïĳİ": 7183,
      "ĠïķĶ": 7184,
      "Ġïķĸ": 7185,
      "ames": 7186,
      "asus": 7187,
      "âĴĥâĴĦ": 7188,
      "tional": 7189,
      "ings": 7190,
      "ĠiPhoneX": 7191,
      "Ġï¼ĵï¼Ĵ": 7192,
      "à½±à½¼à¾ĥà¼ĭ": 7193,
      "AAA": 7194,
      "ader": 7195,
      "ãģĦ": 7196,
      "ĠãĢĤ)": 7197,
      "Ġï¼Ķï¼Ĳï¼Ĳ": 7198,
      "ï½ī": 7199,
      "Ġï¼ĸï¼Ĳ": 7200,
      "guÄģn": 7201,
      "ĠApple": 7202,
      "Ã¨ng": 7203,
      "ãĥĪ": 7204,
      "à¾łà¼ĭ": 7205,
      "Ġ5100004000": 7206,
      "tÊĤo": 7207,
      "Ġ4146": 7208,
      "Ġïķĳïİµ": 7209,
      "ĠPhrase": 7210,
      "Ê¦a": 7211,
      "CNN": 7212,
      "Êĳa": 7213,
      "ĠïĶĬ": 7214,
      "ĠAllard": 7215,
      "ïķĳ": 7216,
      "ĠCRH": 7217,
      "ĠISSN": 7218,
      "ÂŃÂŃ": 7219,
      "Ġ610012": 7220,
      "86603201": 7221,
      "86603236": 7222,
      "Ġà¼¡à¼¡à¼¨à¼¢": 7223,
      "ĠLuvs": 7224,
      "à½µà¼ĭ": 7225,
      "Point": 7226,
      "Ġ228438": 7227,
      "witter": 7228,
      "ĠHimalaya": 7229,
      "chnology": 7230,
      "ĠâŁ«[": 7231,
      "ĠPentium": 7232,
      "Ġ5100004000148": 7233,
      "%ï¼ī": 7234,
      "(ãĢĬ": 7235,
      "):": 7236,
      "-ï¼Łï¼ī": 7237,
      "289": 7238,
      "250": 7239,
      "218": 7240,
      "380": 7241,
      "365": 7242,
      "432": 7243,
      "458": 7244,
      "424": 7245,
      "427": 7246,
      "485": 7247,
      "540": 7248,
      "536": 7249,
      "562": 7250,
      "647": 7251,
      "720": 7252,
      "750": 7253,
      "836": 7254,
      "900": 7255,
      "980": 7256,
      "CE": 7257,
      "Den": 7258,
      "FO": 7259,
      "GO": 7260,
      "Gar": 7261,
      "IE": 7262,
      "Joh": 7263,
      "Jacques": 7264,
      "MD": 7265,
      "Mary": 7266,
      "Ne": 7267,
      "Note": 7268,
      "OR": 7269,
      "OT": 7270,
      "Robert": 7271,
      "SI": 7272,
      "SM": 7273,
      "State": 7274,
      "YB": 7275,
      "ds": 7276,
      "ion": 7277,
      "kV": 7278,
      "kha": 7279,
      "lan": 7280,
      "oin": 7281,
      "ola": 7282,
      "pic": 7283,
      "up": 7284,
      "we": 7285,
      "wood": 7286,
      "with": 7287,
      "yÃ¬": 7288,
      "yÃ¹": 7289,
      "³ãĥ": 7290,
      "Ðµ": 7291,
      "ïĶ": 7292,
      "Ġ&": 7293,
      "Ġz": 7294,
      "Ġà½Ĺ": 7295,
      "Ġà½Ĭà½ĺ": 7296,
      "Ġà½ĭ": 7297,
      "à¾¢": 7298,
      "à½¦à½¡": 7299,
      "à½Ĥà½Ĥà½Ļà½Ħ": 7300,
      "à½Ĥà½ĸà½ħà½ł": 7301,
      "à½Ĥà½ĸà½Ļà½ĵ": 7302,
      "à½Ĥà½¨à½Ħ": 7303,
      "à½Ĥà½łà½Ľà½ĳ": 7304,
      "à½²à½¼": 7305,
      "à½ĳà½Ł": 7306,
      "à½Ħà½Ĥà½ī": 7307,
      "à½¢à½£à½¦": 7308,
      "à½´à½´à¼ĭ": 7309,
      "à½ĵà½ĸà½¦": 7310,
      "à½ĵà½łà½ĸ": 7311,
      "à½ĵà½ģà½Ħ": 7312,
      "à¾±à½¾à¼ĭ": 7313,
      "à½£à½Ł": 7314,
      "à½£à½łà½ĳ": 7315,
      "à½ĺà½Ķ": 7316,
      "à¾²à½¿": 7317,
      "à½Ķà½¡": 7318,
      "à½Ĥà½¦à½Ķ": 7319,
      "à½Ĥà½¦à½¡": 7320,
      "à½Ĥà½¦à½ĳà½Ħ": 7321,
      "à½¼à¼ĭà¼ĭà¼ĭà¼ĭà¼ĭà¼ĭ": 7322,
      "à½¡à½Ģ": 7323,
      "à½ŀà½ĸ": 7324,
      "à½ļà½ĺà½¦": 7325,
      "à½ĳà½Ħà½ŀ": 7326,
      "à¾Łà¾²": 7327,
      "à¾Łà¾Ńà¼ĭ": 7328,
      "à¾Łà½±": 7329,
      "à¾Łà½¾à¼ĭ": 7330,
      "à¾²à½´à½¾à¼İ": 7331,
      "à¾±à½²à½¼à¼ĭ": 7332,
      "à¾¤à½²à¼ĭ": 7333,
      "à¾¡à¾·à½´": 7334,
      "à½Ĥà½ŀà½ĳ": 7335,
      "à½ĳà½ĺà½ģà½ĵ": 7336,
      "à½ĺà½ļà½ĳ": 7337,
      "à½ĺà½ļà½ł": 7338,
      "à½ĸà½Łà½£": 7339,
      "à½ĸà½Łà½Ĥà½¦": 7340,
      "à¾Łà½ºà¼Ķ": 7341,
      "à½łà½ĩà½Ħà½¦": 7342,
      "à½łà½ĩà½Ĭ": 7343,
      "à¾¤à¾±à½²à¼ĭà¼ĭ": 7344,
      "Ġà½Ĥà½Łà½¦": 7345,
      "à¾«à½¼à¼ĭ": 7346,
      "à¾Ńà½½à¼ĭ": 7347,
      "Ġ1201": 7348,
      "à¾²à½¼à¼ĭà¼½": 7349,
      "à¾³à½¼à¼ĭà¼ĭ": 7350,
      "à½ĸà½Ļà½ĸ": 7351,
      "à½Ĳà½Ĥà½ģ": 7352,
      "à½Ĥà½ĵà½¢": 7353,
      "à½±à¼ĭà¼ĭ": 7354,
      "à½ĳà½ĺà½Ĥà½ĳ": 7355,
      "à½Ĥà½ĳà½Ķà½ł": 7356,
      "0077": 7357,
      "à½ĸà½ĳà½Ĥà½Ĥ": 7358,
      "Ġï¼¡": 7359,
      "à½ĺà½ĵà½ĺà½¦": 7360,
      "Ġ615": 7361,
      "Ġ715": 7362,
      "Ġ726": 7363,
      "Ġ749": 7364,
      "209": 7365,
      "2050": 7366,
      "Ġà½Ķà½Ļ": 7367,
      "Ġ835": 7368,
      "Ġ839": 7369,
      "Ġ\"\"'": 7370,
      "Ġ\"\"ï¼»": 7371,
      "Ġ911": 7372,
      "Ġ929": 7373,
      "Ġ963": 7374,
      "Ġ1097": 7375,
      "Ġ1098": 7376,
      "Ġ1037": 7377,
      "Ġ1083": 7378,
      "Ġ1051": 7379,
      "Ġï¼ĪâĢľ": 7380,
      "Ġï¼ĪãĢģ": 7381,
      "à¾¤à¾²à¼į": 7382,
      "à¾¤à¾²à¾Ģ": 7383,
      "Ġ1225": 7384,
      "Ġ1228": 7385,
      "Ġ1213": 7386,
      "Ġ1249": 7387,
      "Ġ1274": 7388,
      "Ġ1291": 7389,
      "Ġ1256": 7390,
      "Ġ1125": 7391,
      "Ġ1114": 7392,
      "Ġ1190": 7393,
      "Ġ1139": 7394,
      "Ġ1151": 7395,
      "Ġ1173": 7396,
      "Ġ1179": 7397,
      "âĳ®": 7398,
      "âĳ½": 7399,
      "Ġ1590": 7400,
      "Ġ1529": 7401,
      "Ġ1585": 7402,
      "Ġ1568": 7403,
      "Ġ1562": 7404,
      "Ġ1358": 7405,
      "Ġ1381": 7406,
      "Ġ1816": 7407,
      "Ġ1833": 7408,
      "Ġ1814": 7409,
      "Ġ1893": 7410,
      "Ġ1843": 7411,
      "Ġ1859": 7412,
      "Ġ1716": 7413,
      "Ġ1790": 7414,
      "Ġ1734": 7415,
      "Ġ1776": 7416,
      "Ġ1737": 7417,
      "Ġ1739": 7418,
      "Ġ1658": 7419,
      "Ġ1616": 7420,
      "Ġ1625": 7421,
      "Ġ1693": 7422,
      "Ġ1656": 7423,
      "Ġ1673": 7424,
      "Ġ1679": 7425,
      "Ġ1428": 7426,
      "Ġ1480": 7427,
      "Ġ1485": 7428,
      "Ġ1481": 7429,
      "Ġ1459": 7430,
      "9717": 7431,
      "Ġ2590": 7432,
      "Ġ2580": 7433,
      "à¼£à¼¡à¼©": 7434,
      "à¼£à¼¢à¼£": 7435,
      "à¼£à¼¦à¼¥": 7436,
      "1910": 7437,
      "1932": 7438,
      "1927": 7439,
      "1962": 7440,
      "1961": 7441,
      "Ġ2440": 7442,
      "Ġ21000": 7443,
      "Ġ2170": 7444,
      "Ġ2157": 7445,
      "Ġ7079": 7446,
      "Ġ2380": 7447,
      "Ġ2336": 7448,
      "Ġ2875": 7449,
      "Ġâĳ¹": 7450,
      "Ġ2699": 7451,
      "Ġ2605": 7452,
      "Ġ()(": 7453,
      "Ġ5050": 7454,
      "Ġ4058": 7455,
      "Ġ2750": 7456,
      "Ġ2760": 7457,
      "Ġ2780": 7458,
      "à¼§à¼¢à¼©": 7459,
      "1089": 7460,
      "1060": 7461,
      "à½ĺà½īà½¦": 7462,
      "...": 7463,
      "à½Įà½¢": 7464,
      "à½Įà½Ģ": 7465,
      "à¼¡à¼©à¼¢à¼¡": 7466,
      "à¼¡à¼©à¼¥à¼¤": 7467,
      "173": 7468,
      "1727": 7469,
      "1729": 7470,
      "12369": 7471,
      "585": 7472,
      "1644": 7473,
      "1682": 7474,
      "606": 7475,
      "607": 7476,
      "ĠâĢĶâĢĶâĢĶ": 7477,
      "ĠAT": 7478,
      "ĠAndroid": 7479,
      "702": 7480,
      "Ġ3535": 7481,
      "662": 7482,
      "880": 7483,
      "Ġ/âĢĿ": 7484,
      "Ġ4549": 7485,
      "Ġ908": 7486,
      "1404": 7487,
      "ï¼ļ//": 7488,
      "778": 7489,
      "à½¿à¼į": 7490,
      "à¼¡à¼łà¼§": 7491,
      "à¼¡à¼łà¼¦": 7492,
      "1566": 7493,
      "Ġ3225": 7494,
      "Ġ3347": 7495,
      "1810": 7496,
      "1866": 7497,
      "351": 7498,
      "ance": 7499,
      "961": 7500,
      "963": 7501,
      "965": 7502,
      "ĠCar": 7503,
      "ĠCen": 7504,
      "ãĢģï¼ļï¼Īï¼ī": 7505,
      "806": 7506,
      "Ġà¼¢à¼©à¼©": 7507,
      "Ġ3750": 7508,
      "405": 7509,
      "Ġ55000": 7510,
      "Ġ952": 7511,
      "Ġ959": 7512,
      "272": 7513,
      "Ġ759": 7514,
      "294": 7515,
      "ham": 7516,
      "hari": 7517,
      "Ġ4680": 7518,
      "451": 7519,
      "453": 7520,
      "Ġà¼¡à¼©à¼¦à¼ł": 7521,
      "Ġà¼¡à¼©à¼¥à¼£": 7522,
      "Ġ5629": 7523,
      "à¼ĭà¼½à¼¼": 7524,
      "à¼¡à¼¢à¼£": 7525,
      "à¼¡à¼¢à¼©": 7526,
      "à¼¡à¼¢à¼łà¼ł": 7527,
      "era": 7528,
      "878": 7529,
      "478": 7530,
      "ĠSA": 7531,
      "ĠSC": 7532,
      "ĠStein": 7533,
      "374": 7534,
      "559": 7535,
      "Ġ852": 7536,
      "Ġ981": 7537,
      "à¼¡à¼¤à¼¡à¼¦": 7538,
      "à¼¡à¼¤à¼¨à¼¡": 7539,
      "à¼¡à¼§à¼¢à¼¡": 7540,
      "à¼¡à¼¦à¼¡": 7541,
      "à¼¡à¼¦à¼łà¼ł": 7542,
      "à¼¡à¼£à¼¥à¼§": 7543,
      "art": 7544,
      "Ġ6740": 7545,
      "ties": 7546,
      "Ġà¼¤à¼£": 7547,
      "Ġà¼¤à¼¤": 7548,
      "Ġà¼¤à¼©": 7549,
      "ĠMO": 7550,
      "ĠMS": 7551,
      "Ġ1391": 7552,
      "Ġà¼¥à¼¤": 7553,
      "Ġà¼¥à¼§": 7554,
      "Ġ1807": 7555,
      "ĠWHO": 7556,
      "ĠWRCA": 7557,
      "Ġ8360": 7558,
      "ool": 7559,
      "ĠKepler": 7560,
      "Ġ9316": 7561,
      "Ġà¼§à¼¥": 7562,
      "Ġà¼§à¼¤": 7563,
      "Ġà¼¦à¼¨": 7564,
      "ĠEP": 7565,
      "tag": 7566,
      "talo": 7567,
      "ĠHa": 7568,
      "eter": 7569,
      "Ġ7900": 7570,
      "ick": 7571,
      "à¼¢à¼¥à¼¦": 7572,
      "_____": 7573,
      "raz": 7574,
      "ofo": 7575,
      "Ġà¼¨à¼¥": 7576,
      "angua": 7577,
      "îĢī": 7578,
      "rome": 7579,
      "uss": 7580,
      "Ġà¼©à¼£": 7581,
      "Ġïį£": 7582,
      "Ġïįı": 7583,
      "Ġ10300": 7584,
      "Ġ10330": 7585,
      "oll": 7586,
      "olden": 7587,
      "ĠVOC": 7588,
      "urel": 7589,
      "ĠUCI": 7590,
      "ĠUDM": 7591,
      "ĠXX": 7592,
      "ree": 7593,
      "ï¼ĮãĢĤï¼ī": 7594,
      "à¼¦à¼¥à¼£": 7595,
      "ĠïĮ³": 7596,
      "ĠïĮ»": 7597,
      "12380": 7598,
      "à¼ĳà¼ĳ": 7599,
      "Ġ14800": 7600,
      "à¼¦à¼§à¼©": 7601,
      "ĠCTRLAL": 7602,
      "jiÃło": 7603,
      "Ġà¼łà¼©": 7604,
      "irus": 7605,
      "tibetan": 7606,
      "Ġkindle": 7607,
      "Ġ0032": 7608,
      "1884": 7609,
      "ãĥ³ãĥ": 7610,
      "ign": 7611,
      "ï¼ĳï¼Ļï¼ķ": 7612,
      ",,,,": 7613,
      "à¼¹à¼ĭ": 7614,
      "ï¼Ĵï¼Ĳï¼ĳï¼ĸ": 7615,
      "CITES": 7616,
      "Ġï¼Ļï¼Ĳ": 7617,
      "mith": 7618,
      "ages": 7619,
      "tical": 7620,
      "Ġ5756": 7621,
      "stra": 7622,
      "ĠStud": 7623,
      "ĠStore": 7624,
      "ĠReal": 7625,
      "rich": 7626,
      "Ġï¼Īï¼Įï¼ī": 7627,
      "ãĢĤãĢĤãĢĤ": 7628,
      "à¾¼à¼ĭ": 7629,
      "jÃ¬ng": 7630,
      "Ġà¼¡à¼łà¼łà¼łà¼łà¼ł": 7631,
      "crip": 7632,
      "Ġà¼ĩ": 7633,
      "Ġï»©": 7634,
      "ĠDardis": 7635,
      "ĠExp": 7636,
      "rammar": 7637,
      "William": 7638,
      "ĠGaruda": 7639,
      "ĠCenter": 7640,
      "anguage": 7641,
      "ĠVOCs": 7642,
      "%(": 7643,
      ")âĢĶ": 7644,
      "-ï¼ī": 7645,
      ".ï¼Īï¼ī": 7646,
      "092": 7647,
      "0148": 7648,
      "210": 7649,
      "244": 7650,
      "275": 7651,
      "288": 7652,
      "3000": 7653,
      "358": 7654,
      "389": 7655,
      "316": 7656,
      "311": 7657,
      "314": 7658,
      "475": 7659,
      "496": 7660,
      "429": 7661,
      "486": 7662,
      "533": 7663,
      "534": 7664,
      "564": 7665,
      "632": 7666,
      "615": 7667,
      "846": 7668,
      "849": 7669,
      "Ad": 7670,
      "Be": 7671,
      "DI": 7672,
      "DOS": 7673,
      "ET": 7674,
      "Fri": 7675,
      "GW": 7676,
      "Gilg": 7677,
      "Hi": 7678,
      "HTML": 7679,
      "II": 7680,
      "LS": 7681,
      "ML": 7682,
      "MV": 7683,
      "No": 7684,
      "Pa": 7685,
      "Ro": 7686,
      "TD": 7687,
      "Tr": 7688,
      "WW": 7689,
      "ach": 7690,
      "bm": 7691,
      "ble": 7692,
      "book": 7693,
      "ct": 7694,
      "ces": 7695,
      "dÉ¯": 7696,
      "dÊĲ": 7697,
      "gh": 7698,
      "gen": 7699,
      "hel": 7700,
      "ip": 7701,
      "jx": 7702,
      "ky": 7703,
      "kit": 7704,
      "kÅįng": 7705,
      "lÃ¬": 7706,
      "lÉ¯": 7707,
      "mon": 7708,
      "mund": 7709,
      "mark": 7710,
      "qing": 7711,
      "sÉ¤": 7712,
      "tra": 7713,
      "tÉ¯": 7714,
      "uis": 7715,
      "van": 7716,
      "xy": 7717,
      "xing": 7718,
      "yong": 7719,
      "zÅįng": 7720,
      "ÏĦ": 7721,
      "ïı": 7722,
      "Ġon": 7723,
      "Ġor": 7724,
      "Ġ________": 7725,
      "Ġà¤": 7726,
      "à¾ĳ": 7727,
      "à½¦à½Ľ": 7728,
      "à½Ĥà½Ķà½ł": 7729,
      "à½Ĥà½ĺà½ģ": 7730,
      "à½Ĥà½Ĳà½ĳ": 7731,
      "à½Ĥà½Ĳà½Ĥ": 7732,
      "à½Ĥà½Ŀ": 7733,
      "à½Ĥà½łà½Ĩà½¢": 7734,
      "à½Ĥà½Ĥà½ıà½ĺ": 7735,
      "à½Ĥà½ĺà½ĳà½ł": 7736,
      "à½Ĥà½ķà½¢": 7737,
      "à½Ĥà½Ĥà½Łà½ĵ": 7738,
      "à½²à¼ĳà¼į": 7739,
      "à½¼à½¼à¼į": 7740,
      "à½¼à¼Į": 7741,
      "à½ĸà½ģ": 7742,
      "à½ĸà½Ĳ": 7743,
      "à½ĸà½Ĩà½¦": 7744,
      "à½Ħà½Ĥà½ĵà½Ħ": 7745,
      "à½Ħà½Ĥà½¢": 7746,
      "à½ĵà½Ł": 7747,
      "à½ĵà½łà½Ĥ": 7748,
      "à½ĵà½ĳà½Ĥ": 7749,
      "à¾±à¼į\"": 7750,
      "à¾±à¼·à½²à¼ĭ": 7751,
      "à½²à¼ĭà¼ĭà¼ĭà¼ĭ": 7752,
      "à½£à½Ĩ": 7753,
      "à½ĺà½Ģ": 7754,
      "à½ĺà½Ļ": 7755,
      "à½ĺà½Ļà½ĵ": 7756,
      "à½Ĥà½¦à½Ĥà½¦": 7757,
      "à½Ĥà½¦à½Ĩ": 7758,
      "à½Ģà½¡": 7759,
      "à½Ģà½£à½ĺ": 7760,
      "à¾±à½²à¼ĭ\"": 7761,
      "à½Ĩà½Ĥà½¢": 7762,
      "à¾Ĵà¾±à¼Ķ": 7763,
      "à½ĸà½¦à½ł": 7764,
      "à¾Ĳ\"": 7765,
      "à¾Ĳà¾²à½´à¼ĭ": 7766,
      "à½ıà½ĳ": 7767,
      "à½ıà½Ģ": 7768,
      "à¾Ł\"": 7769,
      "à¾Łà¾²à½²à¼ĭ": 7770,
      "à¾Łà¾Ģ": 7771,
      "à½Ħà½¦à½ĵà½Ħ": 7772,
      "à½īà½Ĥà½¦": 7773,
      "à½¤à½ĺà½¦": 7774,
      "à½Łà½łà½ĺ": 7775,
      "à½łà½Ĥà½łà½Ħ": 7776,
      "à½łà½ĳà½Ĥà½¦": 7777,
      "à½£à½¦à½¢": 7778,
      "à½Ĥà½ıà½ĸ": 7779,
      "à¾£à½±": 7780,
      "à½Ķà½¢à½¢": 7781,
      "à¾Ķà¼¼": 7782,
      "à¾Ķà¼Ķ": 7783,
      "à½łà½Ľà½Ħ": 7784,
      "Ġà½ĳà½Ģà½ĵ": 7785,
      "à¾·à¾²à½²à¼ĭ": 7786,
      "âĢķ": 7787,
      "à½Ĥà½īà½ĺ": 7788,
      "à¾¨à¾±à½²à¼ĭ": 7789,
      "à¾¨à½ºà¼į": 7790,
      "à¾¨à½±": 7791,
      "à½ĩà½Ĥà½¦": 7792,
      "à¾Ļà¾°à¼ĭ": 7793,
      "à½ĺà½ģà½ĺ": 7794,
      "Ġà½Ĥà½İ": 7795,
      "à½ĳà½ĺà½Ħà½¦à½ĳ": 7796,
      "à¾«à½²à¼İ": 7797,
      "à¾Ĳà½´à¼į\"": 7798,
      "à½łà½Ĳà½Ħ": 7799,
      "à¾²à½²à¼ĭà¼ĭ": 7800,
      "ãĢĺ": 7801,
      "ãĢĻ": 7802,
      "ĠâĢĿâĢĿ": 7803,
      "ĠâĢĿãĢĲ": 7804,
      "ĠâĢĿãĢĶ": 7805,
      "à½ģà½Ĥà½ļà½ĵ": 7806,
      "à½±à½²à¼į": 7807,
      "à½ĸà½Ļà½Ħ": 7808,
      "à½ĺà½ĳà½ĳ": 7809,
      "à¾£à¼ĭà¼ĭ": 7810,
      "à¾Łà½ºà¼ĭà¼ĭ": 7811,
      "à¾Łà½ºà¼ĭà¼¼": 7812,
      "Ġ2089": 7813,
      "à½ĺà½Ĳà½łà½Ħ": 7814,
      "ĠãĢĬ\"\"": 7815,
      "ï¼Ĥ": 7816,
      "0065": 7817,
      "0085": 7818,
      "0063": 7819,
      "à½Ĥà½¤à½¦": 7820,
      "Ġà½§à½£": 7821,
      "Ġà½ĳà½ĸà½ĸ": 7822,
      "Ġ542": 7823,
      "à¼Ħà¼į": 7824,
      "Ġ616": 7825,
      "Ġ631": 7826,
      "Ġ649": 7827,
      "Ġ694": 7828,
      "Ġ799": 7829,
      "Ġ791": 7830,
      "Ġà½łà½Ĥà½ĺ": 7831,
      "à¾©à½ºà¼½": 7832,
      "Ġ913": 7833,
      "Ġ922": 7834,
      "Ġ993": 7835,
      "Ġ924": 7836,
      "Ġ942": 7837,
      "Ġ939": 7838,
      "Ġ1013": 7839,
      "Ġ1049": 7840,
      "Ġ1039": 7841,
      "Ġ1041": 7842,
      "Ġ1074": 7843,
      "Ġ1091": 7844,
      "Ġï¼ĪãĢĬãĢĭï¼ī": 7845,
      "Ġà½Ĥà½ħà½£": 7846,
      "Ġï¼ī\"\"": 7847,
      "Ġ1232": 7848,
      "Ġ1214": 7849,
      "Ġ1243": 7850,
      "Ġ1254": 7851,
      "Ġ12123": 7852,
      "Ġ12336": 7853,
      "Ġ12331": 7854,
      "Ġ1197": 7855,
      "Ġ1117": 7856,
      "Ġ1158": 7857,
      "Ġ1144": 7858,
      "Ġ1188": 7859,
      "Ġ1115": 7860,
      "Ġ1131": 7861,
      "Ġ1163": 7862,
      "âĳ¬": 7863,
      "âĳ°": 7864,
      "âĳ³": 7865,
      "à¼¢à¼¡à¼¤": 7866,
      "à¼¢à¼¡à¼£": 7867,
      "ãĢĬãĢĪ": 7868,
      "Ġ1533": 7869,
      "Ġ1595": 7870,
      "Ġ1594": 7871,
      "Ġ1572": 7872,
      "à¼½\"": 7873,
      "Ġ1333": 7874,
      "Ġ1314": 7875,
      "Ġ1318": 7876,
      "Ġ1326": 7877,
      "Ġ1329": 7878,
      "Ġ1367": 7879,
      "Ġ1341": 7880,
      "Ġ1372": 7881,
      "à½²à¼İ\"": 7882,
      "Ġ1819": 7883,
      "Ġ1830": 7884,
      "Ġ1817": 7885,
      "Ġ1818": 7886,
      "Ġ1869": 7887,
      "Ġ1861": 7888,
      "Ġ1712": 7889,
      "Ġ1736": 7890,
      "Ġ1731": 7891,
      "Ġ1784": 7892,
      "Ġ1791": 7893,
      "Ġ1781": 7894,
      "Ġ3050": 7895,
      "Ġ1675": 7896,
      "Ġ1688": 7897,
      "Ġ1634": 7898,
      "Ġ1621": 7899,
      "Ġ1676": 7900,
      "Ġ1629": 7901,
      "Ġ1646": 7902,
      "Ġ1649": 7903,
      "Ġ1659": 7904,
      "Ġ1489": 7905,
      "Ġ1460": 7906,
      "Ġ1470": 7907,
      "Ġ1446": 7908,
      "Ġ1464": 7909,
      "Ġ1494": 7910,
      "à¾¤à¾²à½²à¼į": 7911,
      "Ġà½łà½ļà½Ĥ": 7912,
      "Ġà½Ĥà½ĳà½ł": 7913,
      "Ġ2530": 7914,
      "Ġ2560": 7915,
      "Ġ2555": 7916,
      "âĢĿ(": 7917,
      "191": 7918,
      "1920": 7919,
      "1925": 7920,
      "1928": 7921,
      "1913": 7922,
      "1940": 7923,
      "1941": 7924,
      "1905": 7925,
      "Ġ2412": 7926,
      "Ġ1003": 7927,
      "Ġ2150": 7928,
      "Ġ2187": 7929,
      "Ġ21205": 7930,
      "Ġà½Ĥà½¡à½ĸ": 7931,
      "Ġà½Ĥà½¡à½£": 7932,
      "Ġ2214": 7933,
      "Ġ2296": 7934,
      "Ġ2243": 7935,
      "Ġ2373": 7936,
      "Ġ23159": 7937,
      "Ġ2897": 7938,
      "Ġ2886": 7939,
      "Ġâĳ»": 7940,
      "Ġ2621": 7941,
      "Ġ()âĢľ": 7942,
      "Ġ5060": 7943,
      "Ġ4080": 7944,
      "à¼¨à¼¤à¼¢": 7945,
      "Ġ3153": 7946,
      "Ġ[ãĢĬ": 7947,
      "à¼§à¼¡à¼¨": 7948,
      "à¼§à¼¤à¼¢": 7949,
      "Ġ2960": 7950,
      "Ġ6010": 7951,
      "1011": 7952,
      "ĠÂ«âĢ¹": 7953,
      "à¼¡à¼©à¼£à¼¤": 7954,
      "à¼¡à¼©à¼¤à¼¢": 7955,
      "1799": 7956,
      "1755": 7957,
      "1704": 7958,
      "1284": 7959,
      "587": 7960,
      "1663": 7961,
      "ĠâĢĺ'": 7962,
      "ĠâĢĶâĢľ": 7963,
      "661": 7964,
      "6677": 7965,
      "ĠâĢĿâĢľâĢĿ": 7966,
      "Ġ45000": 7967,
      "Ġ901": 7968,
      "Ġ906": 7969,
      "Ġ907": 7970,
      "1481": 7971,
      "772": 7972,
      "à¾ľà½²à½²à¼ĭ": 7973,
      "Ġ33000": 7974,
      "Ġ3660": 7975,
      "939": 7976,
      "ĠPas": 7977,
      "1827": 7978,
      "1854": 7979,
      "341": 7980,
      "343": 7981,
      "924": 7982,
      "Ġ38000": 7983,
      "à¾°à½¿": 7984,
      "763": 7985,
      "Ġà½łà½Ĩà½Ĥ": 7986,
      "ï¼ĮãĢģ": 7987,
      "ï¼Įï¼ļ": 7988,
      "ï¼ĮâĢĿâĢľ": 7989,
      "ĠCloud": 7990,
      "Ġ65000": 7991,
      "cott": 7992,
      "403": 7993,
      "406": 7994,
      "651": 7995,
      "Ġ5575": 7996,
      "Ġ5564": 7997,
      "Ġ955": 7998,
      "Ġ956": 7999,
      "Ġ957": 8000,
      "Ġ4350": 8001,
      "274": 8002,
      "ĠãĢĭ(âĢľ": 8003,
      "469": 8004,
      "Ġ1509": 8005,
      "Ġ46000": 8006,
      "456": 8007,
      "459": 8008,
      "Ġà¼¡à¼©à¼£à¼£": 8009,
      "Ġà¼¡à¼©à¼£à¼¤": 8010,
      "Ġà¼¡à¼©à¼¥à¼¡": 8011,
      "Ġà¼¡à¼©à¼§à¼¨": 8012,
      "Ġà¼¡à¼©à¼§à¼¥": 8013,
      "Ġ1209": 8014,
      "Ġ56000": 8015,
      "981": 8016,
      "984": 8017,
      "inde": 8018,
      "à¼ĭà¼½\"": 8019,
      "861": 8020,
      "à¼¡à¼¢à¼¨": 8021,
      "erman": 8022,
      "873": 8023,
      "471": 8024,
      "ĠTB": 8025,
      "ĠTau": 8026,
      "Ġ4220": 8027,
      "Ġ42000": 8028,
      "ĠBSL": 8029,
      "ĠBriti": 8030,
      "Ġà¼¡à¼¡à¼¢à¼¤": 8031,
      "484": 8032,
      "Ġà¼£à¼§": 8033,
      "ĠSH": 8034,
      "ĠSK": 8035,
      "ĠSch": 8036,
      "ĠSOS": 8037,
      "ĠScha": 8038,
      "391": 8039,
      "Ġ579": 8040,
      "Ġ541": 8041,
      "Ġ1557": 8042,
      "551": 8043,
      "552": 8044,
      "556": 8045,
      "Ġ581": 8046,
      "Ġ1103": 8047,
      "Ġ854": 8048,
      "Ġ983": 8049,
      "à¼¡à¼¤à¼¡": 8050,
      "à¼¡à¼¤à¼¢à¼ł": 8051,
      "à¼¡à¼¤à¼¡à¼§": 8052,
      "à¼¡à¼¤à¼¤à¼§": 8053,
      "à¼¡à¼¤à¼¤à¼¥": 8054,
      "6811": 8055,
      "Ġ5260": 8056,
      "à¼¡à¼§à¼¢à¼ł": 8057,
      "à¼¡à¼§à¼¢à¼¥": 8058,
      "à¼¡à¼§à¼£à¼¡": 8059,
      "à½Ĺà½Ģ": 8060,
      "Ġ4940": 8061,
      "ĠDav": 8062,
      "ĠDAC": 8063,
      "à¼¡à¼¦à¼¥à¼ł": 8064,
      "ĠâĢĶâĢĶãĢĬ": 8065,
      "à¼¡à¼£à¼¢": 8066,
      "à¼¡à¼£à¼¥": 8067,
      "à¼¡à¼£à¼¡à¼¨": 8068,
      "à¼¡à¼£à¼¥à¼¦": 8069,
      "à¼¡à¼¥à¼¨": 8070,
      "are": 8071,
      "arth": 8072,
      "Ġ681": 8073,
      "Ġ6789": 8074,
      "à¼¡à¼¨à¼łà¼ł": 8075,
      "Ġà¼¤à¼¢": 8076,
      "Ġà¼¤à¼¥": 8077,
      "ĠMU": 8078,
      "ĠMuseum": 8079,
      "573": 8080,
      "Ġï¼īãĢĭï¼Ī": 8081,
      "à¼µà½º": 8082,
      "Ġà¼¥à¼¢": 8083,
      "Ġà¼¥à¼£": 8084,
      "Ġà¼¥à¼¨": 8085,
      "Ġ773": 8086,
      "Ġ1406": 8087,
      "Ġà¼¦à¼¢": 8088,
      "Ġà¼¦à¼£": 8089,
      "Ġà¼¦à¼¤à¼©": 8090,
      "tal": 8091,
      "ĠLa": 8092,
      "Ġà½ĺà½īà½¦": 8093,
      "ĠHe": 8094,
      "ichar": 8095,
      "à¼¢à¼¥à¼łà¼ł": 8096,
      "à¾ªà½¼": 8097,
      "ias": 8098,
      "à¼¢à¼©à¼©": 8099,
      "rab": 8100,
      "ĠãĢīãĢĭ": 8101,
      "à¾µà½ºà¼ĭ": 8102,
      "Ġsi": 8103,
      "ĠFran": 8104,
      "à¼¢à¼¦à¼ł": 8105,
      "chÃ©": 8106,
      "-------": 8107,
      "à½½à¼į": 8108,
      "Ġà¼©à¼ł": 8109,
      "Ġïįħ": 8110,
      "ï¼ĳï¼ĳ": 8111,
      "ï¼ĳï¼ĺ": 8112,
      "ander": 8113,
      "Ġ11400": 8114,
      "âĳ¾âĳ¿": 8115,
      "ĠVCD": 8116,
      "uri": 8117,
      "ĠUC": 8118,
      "ille": 8119,
      "Ġ11800": 8120,
      "à¼¨à¼łà¼¦": 8121,
      "ĠJack": 8122,
      "Ġà¼¡à¼¤à¼¡à¼¥": 8123,
      "Ġïĳª": 8124,
      "à¼¡à¼©à¼§à¼£": 8125,
      "ï¼ĵï¼ĺ": 8126,
      "Ġï¼ĵï¼Ĳï¼Ĳ": 8127,
      "Ġï¼ĵï¼ĵ": 8128,
      "ĠïĮĬ": 8129,
      "12388": 8130,
      "ĠâĢľï¼ĮâĢĿâĢľ": 8131,
      "terna": 8132,
      "ï¼Ĺï¼ĺ": 8133,
      "Ġ16710": 8134,
      "tibe": 8135,
      "ãģ¨": 8136,
      "Ġï¼Ķï¼Ĳ": 8137,
      "à¼¦à¼¨à¼§": 8138,
      "Ġà¼¡à¼¥à¼ł": 8139,
      "paËĢ": 8140,
      "Ê¨a": 8141,
      "Ê¨u": 8142,
      "Ê¨Ã¸": 8143,
      "à¼¦à¼©à¼¢": 8144,
      "log": 8145,
      "ÊĲu": 8146,
      "ĠãĢĭï¹Ļï¹ļ": 8147,
      "Ġà¼łà¼¨": 8148,
      "Ġkhan": 8149,
      "ĠïĴ¸": 8150,
      "zhÃ²u": 8151,
      "1882": 8152,
      "Ġ4240": 8153,
      "à¼ĭà¼ĭà¼ĭà¼ĭà¼ĭà¼ĭà¼ĭà¼ĭà¼ĭà¼ĭà¼ĭà¼ĭà¼ĭà¼ĭà¼ĭà¼ĭ": 8154,
      "igmund": 8155,
      "ïĸĶ": 8156,
      "à¾Ľà¼į": 8157,
      "Ġ3327": 8158,
      "ï¼ĳï¼Ļï¼Ļ": 8159,
      "1175": 8160,
      "ĠIntel": 8161,
      "Ġïķĳïĳµ": 8162,
      "Ġ6183": 8163,
      "1894": 8164,
      "harma": 8165,
      "que": 8166,
      "Ê¦Ê°a": 8167,
      "ĠÎ¡": 8168,
      "ĠÎ¤": 8169,
      "Ġ4441": 8170,
      "Ġï¼ŁâĢĿ": 8171,
      "Å«n": 8172,
      "Ġ5464": 8173,
      "bola": 8174,
      "board": 8175,
      "ĠSDRAM": 8176,
      "azw": 8177,
      "Max": 8178,
      "ĠIDO": 8179,
      "Ġ7359": 8180,
      "ĠISO": 8181,
      "sung": 8182,
      "Ġ11501": 8183,
      "á¹ĩ": 8184,
      "ïĵĵ": 8185,
      "Ġï¼Īï¼īãĢĭãĢĬ": 8186,
      "Ġ5952": 8187,
      "Ġ138939": 8188,
      "Ê¨Ê°o": 8189,
      "à¼¡à¼¡à¼¤à¼§": 8190,
      "Ê£É¤": 8191,
      "Ġ70911": 8192,
      "ĠALT": 8193,
      "ject": 8194,
      "à¼¡à¼¡à¼©à¼¢": 8195,
      "ĠCOVID": 8196,
      "posy": 8197,
      "à¾ºà¼ĭ": 8198,
      "Ġwap": 8199,
      "ĠFreud": 8200,
      "Landry": 8201,
      "pÃºsÃł": 8202,
      "ĠReality": 8203,
      "qinghai": 8204,
      "yongzin": 8205,
      "index": 8206,
      "ĠDACA": 8207,
      "chÃ©ng": 8208,
      "ternational": 8209,
      ",ãĢĤ": 8210,
      ".ãĢģãĢģãĢģ": 8211,
      "0891": 8212,
      "0137": 8213,
      "297": 8214,
      "270": 8215,
      "290": 8216,
      "276": 8217,
      "296": 8218,
      "397": 8219,
      "312": 8220,
      "360": 8221,
      "417": 8222,
      "466": 8223,
      "411": 8224,
      "490": 8225,
      "495": 8226,
      "482": 8227,
      "520": 8228,
      "532": 8229,
      "550": 8230,
      "528": 8231,
      "521": 8232,
      "549": 8233,
      "567": 8234,
      "543": 8235,
      "5171": 8236,
      "616": 8237,
      "650": 8238,
      "649": 8239,
      "729": 8240,
      "798": 8241,
      "838": 8242,
      "841": 8243,
      "944": 8244,
      "928": 8245,
      "949": 8246,
      "Aurel": 8247,
      "BBC": 8248,
      "CU": 8249,
      "DQ": 8250,
      "ETC": 8251,
      "Eug": 8252,
      "FAST": 8253,
      "Gu": 8254,
      "HC": 8255,
      "He": 8256,
      "HEL": 8257,
      "IV": 8258,
      "Jan": 8259,
      "Ko": 8260,
      "Mc": 8261,
      "Mo": 8262,
      "Mil": 8263,
      "Mos": 8264,
      "ON": 8265,
      "Pelliot": 8266,
      "SF": 8267,
      "Se": 8268,
      "Sy": 8269,
      "San": 8270,
      "Sha": 8271,
      "Sou": 8272,
      "TJ": 8273,
      "Ta": 8274,
      "TER": 8275,
      "UV": 8276,
      "ZC": 8277,
      "ao": 8278,
      "by": 8279,
      "cia": 8280,
      "cess": 8281,
      "eva": 8282,
      "ft": 8283,
      "ford": 8284,
      "fox": 8285,
      "ges": 8286,
      "gram": 8287,
      "gÄĵn": 8288,
      "hen": 8289,
      "hand": 8290,
      "jÃŃ": 8291,
      "lÃ¹": 8292,
      "mÇĶ": 8293,
      "mÃŃng": 8294,
      "nal": 8295,
      "ning": 8296,
      "ois": 8297,
      "pr": 8298,
      "px": 8299,
      "py": 8300,
      "pol": 8301,
      "pÃłi": 8302,
      "rof": 8303,
      "rit": 8304,
      "rss": 8305,
      "sks": 8306,
      "scs": 8307,
      "tÉķ": 8308,
      "tÇİ": 8309,
      "tÉķÊ°": 8310,
      "ui": 8311,
      "ung": 8312,
      "xÃ¬": 8313,
      "xas": 8314,
      "xzz": 8315,
      "zan": 8316,
      "zÃłng": 8317,
      "zÅ«n": 8318,
      "«ãģ": 8319,
      "Ð¸": 8320,
      "ïĮ": 8321,
      "Ġà½ĸà½łà½ĺ": 8322,
      "Ġcom": 8323,
      "Ġal": 8324,
      "Ġà½©": 8325,
      "Ġà¼Ģ": 8326,
      "Ġqh": 8327,
      "ģãĥ": 8328,
      "ĥãĥĪ": 8329,
      "Ļãĥ": 8330,
      "à¾ħ": 8331,
      "à¾Ī": 8332,
      "à½¦à½ĸà½¦": 8333,
      "à½Ĥà½Ľ": 8334,
      "à½Ĥà½ĳà½ĺà½Ĥ": 8335,
      "à½Ĥà½ĺà½Ĳà½ł": 8336,
      "à½Ĥà½ĸà½Ĥ": 8337,
      "à½Ĥà½Ĩà½ĳ": 8338,
      "à½Ĥà½Ĩà½ĸ": 8339,
      "à½Ĥà½ĺà½ĵ": 8340,
      "à½Ĥà½Ĩà½Ħ": 8341,
      "à½Ĥà½¨à½¢": 8342,
      "à½Ĥà½Ĥà½¦à½Ħ": 8343,
      "à½Ĥà½ķà½Ĥ": 8344,
      "à½²à½¾à¼ĭ": 8345,
      "à½Ħà½Ħà½¦": 8346,
      "à½Ħà½ĳà½Ĥ": 8347,
      "à½Ħà½Ĥà½ŀ": 8348,
      "à½´à¼µà¼ĭ": 8349,
      "à½ĵà½Ĥà½ī": 8350,
      "à½ĵà½¢à½Ħ": 8351,
      "à½ĵà½Ĥà½¢": 8352,
      "à¾±à½½": 8353,
      "à½ĺà½Ĥà½¦": 8354,
      "à½ĺà½ĸà½¦": 8355,
      "à½ĺà½ĵà½Ĥ": 8356,
      "à¾²à¼į\"": 8357,
      "à¾²à¾°à½²à¼ĭ": 8358,
      "à½Ķà½Ķ": 8359,
      "à½´à¼ĭà¼ĭà¼ĭ": 8360,
      "à½Ģà½İ": 8361,
      "à½Ĩà½Ĥà½ĳ": 8362,
      "à¾Ĵà¾±à½¿": 8363,
      "à½ĵà½¦à½Ł": 8364,
      "à½īà½ĵà½ĳ": 8365,
      "à½īà½łà½ĺ": 8366,
      "à¾²à½²à½²": 8367,
      "à½¤à½Ķ": 8368,
      "à½łà½ĳà½ĳ": 8369,
      "à½£à½¦à½Ĥ": 8370,
      "à¾¡à¾Ģ": 8371,
      "à½ĺà½¦à½£à½Ĥ": 8372,
      "à½Ĥà½ŀà½Ĥà½¦": 8373,
      "à¾£à½´à¼ĭ": 8374,
      "à¾Ķà¾±à½¼": 8375,
      "à¾Ķà¾·à½²à¼ĭ": 8376,
      "à½łà½Ľà½ĵ": 8377,
      "Ġà½¦à½ĸ": 8378,
      "Ġà½ĳà½ĺà½¦": 8379,
      "à½Ĥà½īà½¢": 8380,
      "à½Ĥà½ĵà½¦à½¢": 8381,
      "à¾Łà½¼à¼İ": 8382,
      "à½łà½ģà½ł": 8383,
      "à½łà½ģà½Ħà½¦": 8384,
      "ĠâĢ»": 8385,
      "à¾Łà½ºà½¿": 8386,
      "à¾¨à¾±à¼ĭ": 8387,
      "à¾Ļà½±": 8388,
      "à½ĸà½Ģà½Ĥà½¦": 8389,
      "à½ĸà½Ģà½Ħà½¦": 8390,
      "Ġà½Ĥà½Ļà½ĺ": 8391,
      "à¾¦à¾±à¼ĭ": 8392,
      "à½¡à½Ħà½¡": 8393,
      "Ġà½ĺà½§": 8394,
      "à½łà½ļà½Ĥà½¦": 8395,
      "Ġà½Ģà½ĸ": 8396,
      "à¾Ĵà½¼à¼į\"": 8397,
      "à½ģà½Ĥà½£": 8398,
      "à½ģà½Ĥà½¢à½Ħ": 8399,
      "ĠâĢľï¼Ī": 8400,
      "ĠâĢľ()": 8401,
      "Ġ22016": 8402,
      "à¾¡à½¼à¼İ": 8403,
      "à½±à¼Ķ": 8404,
      "à½ĸà½Ļà½¢": 8405,
      "à½Ĳà½Ĥà½ĺ": 8406,
      "à½Ĥà½Łà½ĺ": 8407,
      "à½Ĥà½¦à½£à½ĳ": 8408,
      "à¾·à¼ĭà¼ĭ": 8409,
      "Ġ2086": 8410,
      "ĠãĢĭ\"\"": 8411,
      "Ġà½ĳà½Ħà½¦": 8412,
      "Ġà½ĳà½Ħà½ĵ": 8413,
      "ï¼¡": 8414,
      "0060": 8415,
      "0029": 8416,
      "0069": 8417,
      "à½Ĥà½¤à½ĳ": 8418,
      "Ġ3893": 8419,
      "Ġ3281": 8420,
      "à¾ķà½ºà¼İ": 8421,
      "Ġà½¨à½ĳ": 8422,
      "à½ĺà½ĩà½ĳ": 8423,
      "à½ĺà½ĩà½¢": 8424,
      "à½ĺà½ĩà½ĺ": 8425,
      "Ġ(?": 8426,
      "à½Ħà½Ĥà½Ĥà½ĵà½ł": 8427,
      "Ġà½ĳà½Ĥà½£": 8428,
      "Ġ)-": 8429,
      "2023": 8430,
      "Ġà½łà½Ĥà½ĸ": 8431,
      "Ġà½Ķà½Ģ": 8432,
      "Ġ897": 8433,
      "Ġ889": 8434,
      "Ġà½Ĥà½¦à½ĳ": 8435,
      "Ġ966": 8436,
      "Ġ928": 8437,
      "Ġ915": 8438,
      "Ġ992": 8439,
      "Ġ976": 8440,
      "Ġ927": 8441,
      "Ġ969": 8442,
      "Ġ962": 8443,
      "Ġ1010": 8444,
      "Ġ1033": 8445,
      "Ġ1093": 8446,
      "Ġ1024": 8447,
      "Ġ1086": 8448,
      "Ġ1068": 8449,
      "Ġ1053": 8450,
      "Ġ1071": 8451,
      "à¼Įà¼ĭà¼İ": 8452,
      "Ġï¼ĪÂ·": 8453,
      "Ġ1220": 8454,
      "Ġ1215": 8455,
      "Ġ1218": 8456,
      "Ġ1242": 8457,
      "Ġ1299": 8458,
      "Ġ1231": 8459,
      "Ġ1283": 8460,
      "Ġ1259": 8461,
      "Ġ1132": 8462,
      "Ġ1128": 8463,
      "Ġ1122": 8464,
      "Ġ1118": 8465,
      "Ġ1196": 8466,
      "Ġ1199": 8467,
      "Ġ1194": 8468,
      "Ġ1143": 8469,
      "Ġ1183": 8470,
      "Ġ1171": 8471,
      "Ġà½łà½ĩà½ĳ": 8472,
      "à¼¢à¼¡à¼¡": 8473,
      "Ġ1517": 8474,
      "Ġ1541": 8475,
      "Ġ1573": 8476,
      "Ġ1571": 8477,
      "Ġ1579": 8478,
      "à¼łà¼¢": 8479,
      "Ġà½ıà½ĳ": 8480,
      "à¼½à¼½": 8481,
      "Ġà½ĺà½ĳà½ĵ": 8482,
      "Ġ1366": 8483,
      "Ġ1362": 8484,
      "Ġ1374": 8485,
      "Ġ1356": 8486,
      "Ġ1371": 8487,
      "Ġ1825": 8488,
      "Ġ1821": 8489,
      "Ġ1842": 8490,
      "Ġ1887": 8491,
      "Ġ1849": 8492,
      "Ġ1801": 8493,
      "Ġ1874": 8494,
      "Ġ1878": 8495,
      "Ġ1728": 8496,
      "Ġ1793": 8497,
      "Ġ1764": 8498,
      "Ġ1701": 8499,
      "Ġ1783": 8500,
      "Ġà½ĩà½ĵ": 8501,
      "Ġ1666": 8502,
      "Ġ1641": 8503,
      "Ġ1654": 8504,
      "Ġ1497": 8505,
      "Ġ1458": 8506,
      "Ġ1476": 8507,
      "Ġ1496": 8508,
      "Ġ1486": 8509,
      "Ġ1484": 8510,
      "Ġ1454": 8511,
      "Ġ1471": 8512,
      "ï¼īâĢĶâĢĶ": 8513,
      "Ġà½Ĥà½ıà½Ĥà½¦": 8514,
      "Ġ2546": 8515,
      "Ġ2561": 8516,
      "Ġ2591": 8517,
      "à¼£à¼¢à¼ł": 8518,
      "1930": 8519,
      "1912": 8520,
      "1916": 8521,
      "1926": 8522,
      "1947": 8523,
      "1939": 8524,
      "1903": 8525,
      "Ġ..âĢĿ": 8526,
      "Ġ2442": 8527,
      "à¼¢à¼łà¼©": 8528,
      "à¼¢à¼łà¼£à¼¥": 8529,
      "Ġ1001": 8530,
      "Ġ2130": 8531,
      "Ġ2166": 8532,
      "Ġ2136": 8533,
      "Ġ2102": 8534,
      "Ġ7060": 8535,
      "Ġ2260": 8536,
      "Ġ2290": 8537,
      "Ġ2236": 8538,
      "Ġ2382": 8539,
      "Ġ2364": 8540,
      "Ġ2870": 8541,
      "Ġ2885": 8542,
      "Ġâĳ¼": 8543,
      "Ġâĳ½": 8544,
      "Ġ()âĢĶ": 8545,
      "Ġ5057": 8546,
      "à¼©à¼¥à¼¨": 8547,
      "Ġ4050": 8548,
      "Ġ31000": 8549,
      "Ġ3185": 8550,
      "Ġ3156": 8551,
      "Ġ2728": 8552,
      "Ġ2793": 8553,
      "Ġ2707": 8554,
      "à¼§à¼¡à¼©": 8555,
      "à¼§à¼¡à¼ł": 8556,
      "à¼§à¼¤à¼§": 8557,
      "306": 8558,
      "à¼¦à¼¡à¼¢": 8559,
      "à¼¦à¼§à¼ł": 8560,
      "à¼¦à¼¨à¼ł": 8561,
      "Ġ2948": 8562,
      "Ġ2962": 8563,
      "Ġ2943": 8564,
      "Ġ2952": 8565,
      "Ġ603": 8566,
      "1067": 8567,
      "1064": 8568,
      "1054": 8569,
      "à½Ĭà½łà½ĺ": 8570,
      "à½ĺà½īà½ł": 8571,
      "à¼¡à¼©à¼¢à¼ł": 8572,
      "à¼¡à¼©à¼£à¼ł": 8573,
      "à¼¡à¼©à¼¢à¼¥": 8574,
      "à¼¡à¼©à¼¢à¼©": 8575,
      "à¼¡à¼©à¼£à¼¦": 8576,
      "à¼¡à¼©à¼¦à¼©": 8577,
      "à¼¡à¼©à¼¥à¼£": 8578,
      "à¼¡à¼©à¼łà¼©": 8579,
      "1738": 8580,
      "1782": 8581,
      "1225": 8582,
      "1228": 8583,
      "1290": 8584,
      "586": 8585,
      "896": 8586,
      "1639": 8587,
      "504": 8588,
      "Ġ801": 8589,
      "Ġ803": 8590,
      "à½łà½ļà½£à½ĳ": 8591,
      "252": 8592,
      "Ġà¼½à¼ĭ": 8593,
      "4424": 8594,
      "ĠAEO": 8595,
      "751": 8596,
      "752": 8597,
      "756": 8598,
      "759": 8599,
      "667": 8600,
      "8804": 8601,
      "284": 8602,
      "ï¼ļâĢľ": 8603,
      "776": 8604,
      "779": 8605,
      "à¼¡à¼łà¼¥à¼¥": 8606,
      "Ġ3275": 8607,
      "Ġ3213": 8608,
      "Ġ3265": 8609,
      "Ġ3311": 8610,
      "Ġ3376": 8611,
      "Ġ3631": 8612,
      "935": 8613,
      "ĠPra": 8614,
      "ĠPre": 8615,
      "ĠPOS": 8616,
      "ĠPlus": 8617,
      "1860": 8618,
      "1844": 8619,
      "1864": 8620,
      "1856": 8621,
      "1802": 8622,
      "ĠâĢ¦.": 8623,
      "Ġ3476": 8624,
      "353": 8625,
      "Ġ3850": 8626,
      "243": 8627,
      "ĠâĢ¦âĢ¦âĢ¦": 8628,
      "ĠâĢ¦âĢ¦âĢ¦âĢ¦": 8629,
      "Ġà½łà½Ĩà½ĺà½¦": 8630,
      "ï¼Įï¼ī": 8631,
      "ï¼ĮâĢľâĢĿ": 8632,
      "964": 8633,
      "ĠCS": 8634,
      "ĠCa": 8635,
      "ĠCha": 8636,
      "ĠCol": 8637,
      "ĠCent": 8638,
      "à¼·à½²": 8639,
      "803": 8640,
      "807": 8641,
      "à¾¨à¾±à½¼à¼İ": 8642,
      "à½»à½¾": 8643,
      "Ġ6560": 8644,
      "Ġà¼¢à¼¢à¼¤": 8645,
      "Ġ37000": 8646,
      "407": 8647,
      "408": 8648,
      "653": 8649,
      "657": 8650,
      "Ġ4378": 8651,
      "Ġ752": 8652,
      "291": 8653,
      "had": 8654,
      "hal": 8655,
      "hare": 8656,
      "Ġ4644": 8657,
      "454": 8658,
      "Ġ4815": 8659,
      "Ġà¼¡à¼©à¼¥à¼ł": 8660,
      "Ġà¼¡à¼©à¼£à¼¥": 8661,
      "Ġà¼¡à¼©à¼§à¼§": 8662,
      "Ġ5697": 8663,
      "Ġ5622": 8664,
      "983": 8665,
      "951": 8666,
      "ĠGB": 8667,
      "Ġph": 8668,
      "857": 8669,
      "à¼¡à¼¢à¼§": 8670,
      "à¼¡à¼¢à¼¥à¼¡": 8671,
      "479": 8672,
      "ĠTF": 8673,
      "ĠBC": 8674,
      "ĠBi": 8675,
      "ĠBo": 8676,
      "ĠBon": 8677,
      "Ġà¼¡à¼¡à¼ł": 8678,
      "Ġà¼¡à¼¡à¼¤": 8679,
      "483": 8680,
      "694": 8681,
      "Ġ0973": 8682,
      "ĠSe": 8683,
      "Ġ15500": 8684,
      "554": 8685,
      "671": 8686,
      "9704424": 8687,
      "Ġ1105": 8688,
      "à¼¡à¼¤à¼¤": 8689,
      "à¼¡à¼¤à¼¡à¼¤": 8690,
      "Ġ5250": 8691,
      "Ġ994": 8692,
      "à¼¡à¼§à¼§": 8693,
      "ĠDa": 8694,
      "ĠDAR": 8695,
      "à¼ĭà¼ĭà¼ĭà¼ĭà¼ĭà¼į": 8696,
      "Ġ--âĢľ": 8697,
      "à¼¡à¼¦à¼¡à¼¨": 8698,
      "à¼¡à¼£à¼¡": 8699,
      "à¼¡à¼£à¼¤": 8700,
      "à¼¡à¼£à¼łà¼ł": 8701,
      "à¼¡à¼£à¼¦à¼¤": 8702,
      "à¼¡à¼¥à¼¥": 8703,
      "à¼¡à¼¥à¼£à¼¨": 8704,
      "ĠIF": 8705,
      "ari": 8706,
      "0524": 8707,
      "Ġ1604": 8708,
      "Ġ1606": 8709,
      "Ġ673": 8710,
      "à¼¡à¼¨à¼¥à¼¡": 8711,
      "à¼¡à¼¨à¼¦à¼£": 8712,
      "tit": 8713,
      "Ġà¼¤à¼¡": 8714,
      "Ġà¼¤à¼¨": 8715,
      "Ġà¼¤à¼¢à¼¤": 8716,
      "Ġ6211": 8717,
      "las": 8718,
      "lack": 8719,
      "lass": 8720,
      "ĠMF": 8721,
      "ĠMyth": 8722,
      "ĠMobile": 8723,
      "shÄģ": 8724,
      "shÄĵn": 8725,
      "shÃ¨ng": 8726,
      "orks": 8727,
      "Ġ1304": 8728,
      "ledge": 8729,
      "level": 8730,
      "à¼µà½²à¼ĭ": 8731,
      "Ġ591": 8732,
      "Ġ5925": 8733,
      "ener": 8734,
      "Ġà¼¥à¼¥": 8735,
      "Ġ1803": 8736,
      "Ġ772": 8737,
      "âĳ§âĳ¨": 8738,
      "ĠWIN": 8739,
      "Ġ8250": 8740,
      "Ġ8848": 8741,
      "ï¼Įï¼ĮãĢĤâĢĿ": 8742,
      "âĢ¢ï¼ī": 8743,
      "âĢ¢ãĢĭ": 8744,
      "ĠKing": 8745,
      "ĠKAI": 8746,
      "Ġà¼§à¼£": 8747,
      "ĠEdge": 8748,
      "ĠLag": 8749,
      "estalo": 8750,
      "ĠHer": 8751,
      "ĠHCoV": 8752,
      "etu": 8753,
      "ĠNHK": 8754,
      "PPP": 8755,
      "ice": 8756,
      "iction": 8757,
      "Ġ9400": 8758,
      "nge": 8759,
      "à¾µà¼į": 8760,
      "ĠFDA": 8761,
      "ĠFacebook": 8762,
      "à¼¢à¼¤à¼£": 8763,
      "isco": 8764,
      "1004": 8765,
      "1005": 8766,
      "ald": 8767,
      "à¼¢à¼¦à¼łà¼ł": 8768,
      "chine": 8769,
      "ĠãĢĬãĢĭãĢĬãĢĭãĢĬãĢĭ": 8770,
      "els": 8771,
      "yam": 8772,
      "ï¼ĳï¼ĸ": 8773,
      "xiÄģng": 8774,
      "ĠãĢģãĢģãĢģ": 8775,
      "ĠãĢģãĢģãĢģãĢģãĢģ": 8776,
      "oli": 8777,
      "Ġï¼Įï¼ĮãĢĤ": 8778,
      "Ġ---âĢĿ": 8779,
      "ĠOCR": 8780,
      "ĠVOL": 8781,
      "urs": 8782,
      "ĠUDP": 8783,
      "âĴĢâĴģ": 8784,
      "ĠXHTML": 8785,
      "Ġoffice": 8786,
      "Ġ3305": 8787,
      "Ġ3308": 8788,
      "ĠJe": 8789,
      "unita": 8790,
      "ĠZa": 8791,
      "Ġâħ¤": 8792,
      "Ġà¼¡à¼£à¼©à¼¢": 8793,
      "Ġ2190": 8794,
      "à¼£à¼¥à¼łà¼ł": 8795,
      "red": 8796,
      "Ġà¼¡à¼§à¼ł": 8797,
      "rig": 8798,
      "riors": 8799,
      "ï¼ĵï¼Ĺ": 8800,
      "12315": 8801,
      "12365": 8802,
      "otson": 8803,
      "ature": 8804,
      "ãģį": 8805,
      "ãģ«ãģ": 8806,
      "Ġï¼Ķï¼ķ": 8807,
      "oman": 8808,
      "omol": 8809,
      "Ġï¼ķï¼Ĳï¼Ĳ": 8810,
      "ĠTibet": 8811,
      "ï¼Ķï¼ķ": 8812,
      "âĴĨâĴĩ": 8813,
      "à¼¦à¼§à¼¨": 8814,
      "à¾ŀà½±à½²à¼ĭ": 8815,
      "15827": 8816,
      "à¼©à¼©à¼¦": 8817,
      "ĠïĲ¾": 8818,
      "ĠïĲŀ": 8819,
      "ĠïĲł": 8820,
      "ckwith": 8821,
      "Ġ3194": 8822,
      "ĠCTRLSh": 8823,
      "Ġïİĵ": 8824,
      "1193": 8825,
      "irko": 8826,
      "ï¼ĳï¼Ĳ": 8827,
      "Ġ5807": 8828,
      "ĠâĢľï¼Įï¼ĮâĢĿ": 8829,
      "Ġ4242": 8830,
      "ãĥģãĥ": 8831,
      "Ã³ng": 8832,
      "ayan": 8833,
      "Ġï¼Ĵï¼Ĳï¼ĳï¼Ķ": 8834,
      "ĠCho": 8835,
      "ĠChirko": 8836,
      "rans": 8837,
      "Ġ6282": 8838,
      "Ġja": 8839,
      "Ġ28517": 8840,
      "ĠIns": 8841,
      "1127": 8842,
      "à¼¹à¾Ģà¼ĭ": 8843,
      "iller": 8844,
      "ewey": 8845,
      "ucci": 8846,
      "ugh": 8847,
      "1441": 8848,
      "1449": 8849,
      "Ġ4880": 8850,
      "huÃ¬": 8851,
      "ĠÎ²": 8852,
      "à¼¡à¼¤à¼łà¼¥": 8853,
      "Ġ37410": 8854,
      "ïį½": 8855,
      "Ġ4898": 8856,
      "Ġ5769": 8857,
      "Ġ6240": 8858,
      "ĠÂ·Â·Â·Â·Â·Â·âĢĿ": 8859,
      "IFT": 8860,
      "Ġ........": 8861,
      "zzi": 8862,
      "Åĭa": 8863,
      "ouston": 8864,
      "racter": 8865,
      "Ġ13909704424": 8866,
      "yuÃ¡n": 8867,
      "ĠïĮĤïĸĳ": 8868,
      "ÄĽn": 8869,
      "GeLe": 8870,
      "à¼¡à¼¡à¼§à¼©": 8871,
      "Ġà½¿à¼İ": 8872,
      "Ġ________________________": 8873,
      "Ġï½Ĳ": 8874,
      "à¾»à¼ĭ": 8875,
      "Verb": 8876,
      "lorer": 8877,
      "Berry": 8878,
      "atia": 8879,
      "bhÄģ": 8880,
      "Plato": 8881,
      "nowledge": 8882,
      "ĠMVP": 8883,
      "Balti": 8884,
      "[];": 8885,
      "âĴĥâĴĦâĴħ": 8886,
      "ĠStudies": 8887,
      "ĠExplorer": 8888,
      "Beckwith": 8889,
      "ï¼ĮâĢĿâĢľï¼ĮâĢĿ": 8890,
      "ĠJackson": 8891,
      "ĠâĢľï¼ĮâĢĿâĢľï¼ĮâĢĿâĢľï¼ĮâĢĿ": 8892,
      "Eugene": 8893,
      "HELLO": 8894,
      "xzzsks": 8895,
      "ĻãĥĥãĥĪ": 8896,
      "ĠLagunita": 8897,
      "estalozzi": 8898,
      "ĠCTRLShift": 8899,
      "ãĥģãĥĻãĥĥãĥĪ": 8900,
      "ĠChirkova": 8901,
      "\"(": 8902,
      "/âĢľ": 8903,
      "010": 8904,
      "017": 8905,
      "0101": 8906,
      "0328": 8907,
      "1890": 8908,
      "1339": 8909,
      "225": 8910,
      "277": 8911,
      "235": 8912,
      "332": 8913,
      "313": 8914,
      "376": 8915,
      "399": 8916,
      "420": 8917,
      "416": 8918,
      "460": 8919,
      "414": 8920,
      "413": 8921,
      "422": 8922,
      "493": 8923,
      "434": 8924,
      "492": 8925,
      "465": 8926,
      "426": 8927,
      "487": 8928,
      "510": 8929,
      "512": 8930,
      "516": 8931,
      "560": 8932,
      "575": 8933,
      "570": 8934,
      "514": 8935,
      "518": 8936,
      "527": 8937,
      "545": 8938,
      "538": 8939,
      "539": 8940,
      "697": 8941,
      "633": 8942,
      "626": 8943,
      "636": 8944,
      "695": 8945,
      "638": 8946,
      "637": 8947,
      "6329": 8948,
      "780": 8949,
      "736": 8950,
      "731": 8951,
      "794": 8952,
      "916": 8953,
      "948": 8954,
      ":/": 8955,
      "AB": 8956,
      "AP": 8957,
      "AQ": 8958,
      "Afg": 8959,
      "BD": 8960,
      "BI": 8961,
      "BP": 8962,
      "BV": 8963,
      "Ce": 8964,
      "DO": 8965,
      "Dr": 8966,
      "Donal": 8967,
      "EE": 8968,
      "Emmanuel": 8969,
      "Flow": 8970,
      "Gbps": 8971,
      "HU": 8972,
      "Hg": 8973,
      "Hor": 8974,
      "Hol": 8975,
      "Ham": 8976,
      "HAA": 8977,
      "IB": 8978,
      "Ind": 8979,
      "Ja": 8980,
      "Kar": 8981,
      "Kasus": 8982,
      "La": 8983,
      "Lu": 8984,
      "NP": 8985,
      "Non": 8986,
      "Noto": 8987,
      "NSS": 8988,
      "Os": 8989,
      "Power": 8990,
      "SC": 8991,
      "SP": 8992,
      "Sar": 8993,
      "Scott": 8994,
      "Tha": 8995,
      "Twitter": 8996,
      "Unicode": 8997,
      "VQ": 8998,
      "Wal": 8999,
      "Watch": 9000,
      "Xz": 9001,
      "bi": 9002,
      "bel": 9003,
      "bur": 9004,
      "bÃº": 9005,
      "bÄĽn": 9006,
      "cÃŃ": 9007,
      "der": 9008,
      "dÃ©": 9009,
      "dson": 9010,
      "ev": 9011,
      "fe": 9012,
      "fter": 9013,
      "face": 9014,
      "gÉ¯": 9015,
      "hi": 9016,
      "ho": 9017,
      "hya": 9018,
      "iin": 9019,
      "iet": 9020,
      "ku": 9021,
      "kar": 9022,
      "lis": 9023,
      "min": 9024,
      "mÃŃ": 9025,
      "mir": 9026,
      "mÉĽ": 9027,
      "nes": 9028,
      "ney": 9029,
      "ota": 9030,
      "oul": 9031,
      "pan": 9032,
      "rd": 9033,
      "sy": 9034,
      "sÃ¨": 9035,
      "skype": 9036,
      "tÃ¸": 9037,
      "tÉª": 9038,
      "ual": 9039,
      "uro": 9040,
      "uba": 9041,
      "uÃ¡n": 9042,
      "vannes": 9043,
      "yo": 9044,
      "yÇĶ": 9045,
      "ze": 9046,
      "zg": 9047,
      "zÉ¯": 9048,
      "¤ãĥ³ãĥ": 9049,
      "´Ģ": 9050,
      "Ã¼": 9051,
      "É¬": 9052,
      "Î¡": 9053,
      "Î±": 9054,
      "Îł": 9055,
      "Ð¾": 9056,
      "á´Ģ": 9057,
      "Ġdo": 9058,
      "ĠÊĶ": 9059,
      "ĠÉĳ": 9060,
      "à¼Ĳ": 9061,
      "à¼ĭà¼ĳà¼į": 9062,
      "à½¦à½ī": 9063,
      "à½¦à½ĺà½¦": 9064,
      "à½¦à½ĺà½ļ": 9065,
      "à½¦à½¢à½ĸà½¦": 9066,
      "à½Ĥà½ĺà½¦": 9067,
      "à½Ĥà½Ĥà½¤": 9068,
      "à½Ĥà½ĺà½Ĳà½¢": 9069,
      "à½Ĥà½Ĩà½Ĥ": 9070,
      "à½Ĥà½Ĥà½¡à½Ħ": 9071,
      "à½Ĥà½ģà½ĺ": 9072,
      "à½¼à½¾à¼į": 9073,
      "à½ĳà½ŀ": 9074,
      "à½ĳà½Ĳ": 9075,
      "à½ĳà½ĵà½Ħ": 9076,
      "à½ĸà½Ķ": 9077,
      "à½ĸà½ī": 9078,
      "à½ĸà½Ĳà½ĸ": 9079,
      "à½Ħà½Ģ": 9080,
      "à½Ħà½łà½Ĥ": 9081,
      "à½Ħà½ĸà½ł": 9082,
      "à½¢à½Ĳ": 9083,
      "à½¢à½Ĥà½ŀ": 9084,
      "à½¢à½Ĥà½ı": 9085,
      "à½´à¼Įà¼į": 9086,
      "à½ĵà½Ĩ": 9087,
      "à½ĵà½ĸà½¢": 9088,
      "à½ĵà½ĸà½Ģ": 9089,
      "à¾±à¾±à½²à¼ĭ": 9090,
      "à¾±à¼Ķ": 9091,
      "à½łà½ĸà½¦": 9092,
      "à½łà½ħ": 9093,
      "à½łà½ı": 9094,
      "à½łà½Ł": 9095,
      "à½²à¼ĭà½²": 9096,
      "à½²à¼ĭà¼ĭà¼ĭà¼ĭà¼ĭ": 9097,
      "à½ºà¼Įà¼į": 9098,
      "à½£à½Ĳ": 9099,
      "à½£à½łà½ĸ": 9100,
      "à½£à½ĸà½ł": 9101,
      "à½£à½Ĭ": 9102,
      "à½ĺà½¡": 9103,
      "à¾²à¼½": 9104,
      "à¾²à¼İ\"": 9105,
      "à¾²à½¾à¼ĭ": 9106,
      "à¾²à½±à½´": 9107,
      "à½ģà½Ĥà½ŀ": 9108,
      "à½¡à½łà½Ħ": 9109,
      "à½Ģà½Ģ": 9110,
      "à½Ģà½Ĳ": 9111,
      "à½ĳà½Ħà½£": 9112,
      "à½ĳà½Ħà½ĺ": 9113,
      "à½ĳà½Ħà½Ģ": 9114,
      "à½ĳà½Ħà½ĺà½ļ": 9115,
      "à¾Ĵà¾±à¾Ģ": 9116,
      "à½ĸà½¦à½ŀ": 9117,
      "à½ıà½İ": 9118,
      "à¾Łà¼½": 9119,
      "à¾Łà½±à½²à¼ĭ": 9120,
      "à½ĵà½¦à½Ħà½¦": 9121,
      "à¾²à½²\"": 9122,
      "à¾²à½²à½²à¼ĭ": 9123,
      "à¾²à½¼\"": 9124,
      "à¾²à½¼à½¼": 9125,
      "à¾²à½¼à¼¼": 9126,
      "à½łà½Ĥà½ĺà½¦": 9127,
      "à¾±à½²\"": 9128,
      "à½£à½¦à½ŀ": 9129,
      "à½ĳà½Ĥà½ģ": 9130,
      "à¾©à¾Ģà¼ĭ": 9131,
      "à½Ĥà½ıà½£": 9132,
      "à½łà½Ľà½ĺà½¦": 9133,
      "à½Ļà½İ": 9134,
      "à½ĺà½Ĳà½ĳ": 9135,
      "à½ĳà½ĸà½Ĥ": 9136,
      "à½ĳà½ĸà½ŀ": 9137,
      "à½ĸà½ŀà½Ĥà½£": 9138,
      "à½ĸà½ŀà½Ĥà½¡": 9139,
      "Ġà½¢à½ĳ": 9140,
      "à¾²à½ºà½º": 9141,
      "à¾²à½ºà¼İ": 9142,
      "à½¨à½ĵà½ĵ": 9143,
      "à½¨à½Ļà½¢": 9144,
      "à¾·à¾²à½²": 9145,
      "à¾·à½»à¼ĭ": 9146,
      "à½Ĥà½īà½ĺà½¦": 9147,
      "ĠâĢĮ": 9148,
      "à½¢à½Ħà½ĸà½ŀ": 9149,
      "à¾Ļà¾Ļ": 9150,
      "à¾Ļà¾Ļà½²": 9151,
      "à½ĸà½ĳà½ĵ": 9152,
      "à¾¦à¾²à½¼à¼ĭ": 9153,
      "à½Ķà½¦à½¢": 9154,
      "à½£à½ĺà½£": 9155,
      "Ġà½ĺà½Ħà½¦": 9156,
      "Ġà½ĺà½ĳà½¢": 9157,
      "Ġà½ĺà½łà½¢": 9158,
      "à½łà½ļà½ĸà½¦": 9159,
      "Ġà½ĸà½ĺà½¦": 9160,
      "Ġà½ĸà½Ĥà½ĳ": 9161,
      "à½łà½Ĳà½¢": 9162,
      "à½ģà½Ĥà½¡": 9163,
      "ĠãĢĹ": 9164,
      "à¾²à½¼à¼ĭà¼ĭ": 9165,
      "ĠâĢľ//": 9166,
      "ĠâĢľãĢĤ": 9167,
      "ĠâĢľï¼Ł": 9168,
      "à¾¡à½ºà¼ĭà¼ĭ": 9169,
      "à½Ĳà½Ĥà½£": 9170,
      "à½Ĳà½Ĥà½Ĳà½Ĥ": 9171,
      "à½¢à½ĸà½¦à½¦": 9172,
      "à½Ŀà½ı": 9173,
      "à½ĸà½ıà½Ĭ": 9174,
      "à½ĳà½ĺà½Ĥà½¡": 9175,
      "à½ĳà½ĺà½Ĥà½ĺà½ģà½ł": 9176,
      "Ġ2090": 9177,
      "Ġ2069": 9178,
      "Ġ2094": 9179,
      "ĠãĢĭ,": 9180,
      "ĠãĢĭï¼ī": 9181,
      "ĠãĢĭãĢĲ": 9182,
      "à¾¤à¾±à½²à½²": 9183,
      "Ġà½ĳà½Ħà½£": 9184,
      "à½ĳà½Ĥà½łà½¢": 9185,
      "001": 9186,
      "002": 9187,
      "0028": 9188,
      "0022": 9189,
      "0080": 9190,
      "0095": 9191,
      "0047": 9192,
      "0049": 9193,
      "0078": 9194,
      "à¾¥à½¼à¼į": 9195,
      "Ġà½¨à½¦": 9196,
      "à¾©à½ºà¼ĭà¼ĭ": 9197,
      "à½¢à½ĸà½ĸà½¦": 9198,
      "à½ĸà½ŀà½Ĥà½¢": 9199,
      "à½ĸà½ŀà½Ĥà½ĺ": 9200,
      "à½Ĥà½¢à½¢": 9201,
      "Ġï¼¦": 9202,
      "Ġï¼ħ": 9203,
      "Ġï¼Ń": 9204,
      "Ġ(-": 9205,
      "Ġ(âĢľâĢĿ": 9206,
      "à¾¤à¾±à¾Ģ": 9207,
      "à¾²à¾Ńà¼İ": 9208,
      "à½ĺà½ĵà½Ĥà½¦": 9209,
      "Ġà½Ķà½łà½Ħ": 9210,
      "Ġà½Ķà½łà½¢": 9211,
      "Ġ734": 9212,
      "Ġ)()": 9213,
      "Ġ)ãĢī": 9214,
      "Ġ896": 9215,
      "Ġ883": 9216,
      "Ġ891": 9217,
      "à½Ģà½¢à½İà½ł": 9218,
      "Ġ932": 9219,
      "Ġ944": 9220,
      "Ġ977": 9221,
      "Ġ949": 9222,
      "Ġ9899": 9223,
      "Ġ1019": 9224,
      "Ġ1066": 9225,
      "Ġ1096": 9226,
      "Ġ1046": 9227,
      "Ġ1047": 9228,
      "Ġ1061": 9229,
      "Ġ1052": 9230,
      "âĢľãĢģ": 9231,
      "âĢľâĢ¦âĢ¦": 9232,
      "à¼¡à¼¡à¼¨": 9233,
      "Ġà½łà½ķà½£": 9234,
      "Ġï¼Īï¼Įï¼Į": 9235,
      "Ġà½Ĥà½ħà½ĺ": 9236,
      "Ġ1221": 9237,
      "Ġ1224": 9238,
      "Ġ1223": 9239,
      "Ġ1226": 9240,
      "Ġ12309": 9241,
      "Ġ1241": 9242,
      "Ġ1264": 9243,
[...]
